[PAD]	0
[UNK]	0
[BOS]	0
[EOS]	0
<0x00>	0
<0x01>	0
<0x02>	0
<0x03>	0
<0x04>	0
<0x05>	0
<0x06>	0
<0x07>	0
<0x08>	0
<0x09>	0
<0x0A>	0
<0x0B>	0
<0x0C>	0
<0x0D>	0
<0x0E>	0
<0x0F>	0
<0x10>	0
<0x11>	0
<0x12>	0
<0x13>	0
<0x14>	0
<0x15>	0
<0x16>	0
<0x17>	0
<0x18>	0
<0x19>	0
<0x1A>	0
<0x1B>	0
<0x1C>	0
<0x1D>	0
<0x1E>	0
<0x1F>	0
<0x20>	0
<0x21>	0
<0x22>	0
<0x23>	0
<0x24>	0
<0x25>	0
<0x26>	0
<0x27>	0
<0x28>	0
<0x29>	0
<0x2A>	0
<0x2B>	0
<0x2C>	0
<0x2D>	0
<0x2E>	0
<0x2F>	0
<0x30>	0
<0x31>	0
<0x32>	0
<0x33>	0
<0x34>	0
<0x35>	0
<0x36>	0
<0x37>	0
<0x38>	0
<0x39>	0
<0x3A>	0
<0x3B>	0
<0x3C>	0
<0x3D>	0
<0x3E>	0
<0x3F>	0
<0x40>	0
<0x41>	0
<0x42>	0
<0x43>	0
<0x44>	0
<0x45>	0
<0x46>	0
<0x47>	0
<0x48>	0
<0x49>	0
<0x4A>	0
<0x4B>	0
<0x4C>	0
<0x4D>	0
<0x4E>	0
<0x4F>	0
<0x50>	0
<0x51>	0
<0x52>	0
<0x53>	0
<0x54>	0
<0x55>	0
<0x56>	0
<0x57>	0
<0x58>	0
<0x59>	0
<0x5A>	0
<0x5B>	0
<0x5C>	0
<0x5D>	0
<0x5E>	0
<0x5F>	0
<0x60>	0
<0x61>	0
<0x62>	0
<0x63>	0
<0x64>	0
<0x65>	0
<0x66>	0
<0x67>	0
<0x68>	0
<0x69>	0
<0x6A>	0
<0x6B>	0
<0x6C>	0
<0x6D>	0
<0x6E>	0
<0x6F>	0
<0x70>	0
<0x71>	0
<0x72>	0
<0x73>	0
<0x74>	0
<0x75>	0
<0x76>	0
<0x77>	0
<0x78>	0
<0x79>	0
<0x7A>	0
<0x7B>	0
<0x7C>	0
<0x7D>	0
<0x7E>	0
<0x7F>	0
<0x80>	0
<0x81>	0
<0x82>	0
<0x83>	0
<0x84>	0
<0x85>	0
<0x86>	0
<0x87>	0
<0x88>	0
<0x89>	0
<0x8A>	0
<0x8B>	0
<0x8C>	0
<0x8D>	0
<0x8E>	0
<0x8F>	0
<0x90>	0
<0x91>	0
<0x92>	0
<0x93>	0
<0x94>	0
<0x95>	0
<0x96>	0
<0x97>	0
<0x98>	0
<0x99>	0
<0x9A>	0
<0x9B>	0
<0x9C>	0
<0x9D>	0
<0x9E>	0
<0x9F>	0
<0xA0>	0
<0xA1>	0
<0xA2>	0
<0xA3>	0
<0xA4>	0
<0xA5>	0
<0xA6>	0
<0xA7>	0
<0xA8>	0
<0xA9>	0
<0xAA>	0
<0xAB>	0
<0xAC>	0
<0xAD>	0
<0xAE>	0
<0xAF>	0
<0xB0>	0
<0xB1>	0
<0xB2>	0
<0xB3>	0
<0xB4>	0
<0xB5>	0
<0xB6>	0
<0xB7>	0
<0xB8>	0
<0xB9>	0
<0xBA>	0
<0xBB>	0
<0xBC>	0
<0xBD>	0
<0xBE>	0
<0xBF>	0
<0xC0>	0
<0xC1>	0
<0xC2>	0
<0xC3>	0
<0xC4>	0
<0xC5>	0
<0xC6>	0
<0xC7>	0
<0xC8>	0
<0xC9>	0
<0xCA>	0
<0xCB>	0
<0xCC>	0
<0xCD>	0
<0xCE>	0
<0xCF>	0
<0xD0>	0
<0xD1>	0
<0xD2>	0
<0xD3>	0
<0xD4>	0
<0xD5>	0
<0xD6>	0
<0xD7>	0
<0xD8>	0
<0xD9>	0
<0xDA>	0
<0xDB>	0
<0xDC>	0
<0xDD>	0
<0xDE>	0
<0xDF>	0
<0xE0>	0
<0xE1>	0
<0xE2>	0
<0xE3>	0
<0xE4>	0
<0xE5>	0
<0xE6>	0
<0xE7>	0
<0xE8>	0
<0xE9>	0
<0xEA>	0
<0xEB>	0
<0xEC>	0
<0xED>	0
<0xEE>	0
<0xEF>	0
<0xF0>	0
<0xF1>	0
<0xF2>	0
<0xF3>	0
<0xF4>	0
<0xF5>	0
<0xF6>	0
<0xF7>	0
<0xF8>	0
<0xF9>	0
<0xFA>	0
<0xFB>	0
<0xFC>	0
<0xFD>	0
<0xFE>	0
<0xFF>	0
▁t	-0
he	-1
▁a	-2
▁s	-3
nd	-4
▁w	-5
▁the	-6
ed	-7
▁b	-8
▁to	-9
▁and	-10
▁T	-11
▁h	-12
▁f	-13
in	-14
▁wa	-15
re	-16
it	-17
ou	-18
▁l	-19
▁d	-20
▁c	-21
▁p	-22
▁The	-23
ay	-24
▁m	-25
er	-26
▁was	-27
om	-28
▁he	-29
is	-30
ar	-31
▁n	-32
im	-33
on	-34
▁sa	-35
id	-36
ll	-37
▁S	-38
▁ha	-39
▁g	-40
at	-41
ing	-42
ot	-43
en	-44
an	-45
le	-46
or	-47
end	-48
▁"	-49
ir	-50
▁H	-51
of	-52
am	-53
▁They	-54
et	-55
▁it	-56
▁th	-57
ig	-58
▁He	-59
▁in	-60
il	-61
▁pl	-62
ow	-63
ver	-64
ri	-65
ut	-66
▁be	-67
▁u	-68
▁said	-69
▁play	-70
▁O	-71
ith	-72
▁Tim	-73
▁day	-74
▁with	-75
pp	-76
▁On	-77
▁y	-78
oo	-79
ked	-80
▁r	-81
▁I	-82
▁She	-83
▁her	-84
ex	-85
ce	-86
ld	-87
▁his	-88
▁st	-89
ke	-90
▁L	-91
▁big	-92
nt	-93
ck	-94
▁you	-95
very	-96
st	-97
ve	-98
▁B	-99
▁on	-100
un	-101
▁happ	-102
riend	-103
▁friend	-104
all	-105
ily	-106
ext	-107
▁M	-108
▁they	-109
oft	-110
▁we	-111
▁had	-112
▁not	-113
▁li	-114
▁up	-115
her	-116
▁want	-117
▁of	-118
ad	-119
itt	-120
▁<	-121
|>	-122
▁<|	-123
endoft	-124
endoftext	-125
se	-126
▁do	-127
▁e	-128
▁happy	-129
ent	-130
▁very	-131
es	-132
▁that	-133
▁saw	-134
▁Lily	-135
▁One	-136
▁A	-137
ould	-138
▁mom	-139
▁for	-140
▁sh	-141
ittle	-142
▁little	-143
▁Tom	-144
▁she	-145
ch	-146
ime	-147
▁nam	-148
."	-149
▁time	-150
▁k	-151
ound	-152
▁so	-153
▁there	-154
▁named	-155
▁sm	-156
▁bo	-157
▁were	-158
▁ne	-159
▁wanted	-160
▁but	-161
out	-162
▁friends	-163
ved	-164
!"	-165
ht	-166
ird	-167
el	-168
▁bird	-169
al	-170
▁an	-171
ake	-172
▁It	-173
▁too	-174
ome	-175
ug	-176
ide	-177
▁went	-178
▁wh	-179
▁hel	-180
▁Once	-181
▁is	-182
▁all	-183
▁help	-184
ue	-185
▁loo	-186
▁lo	-187
ter	-188
▁upon	-189
ry	-190
ore	-191
ind	-192
▁fun	-193
get	-194
▁toy	-195
ill	-196
ame	-197
▁as	-198
▁at	-199
ra	-200
▁j	-201
▁did	-202
gether	-203
▁re	-204
ur	-205
▁o	-206
▁se	-207
▁together	-208
ack	-209
▁cat	-210
ly	-211
▁tre	-212
ood	-213
ic	-214
ted	-215
▁dog	-216
▁could	-217
▁can	-218
▁their	-219
ard	-220
ec	-221
ark	-222
▁gir	-223
▁played	-224
▁him	-225
▁ball	-226
?"	-227
▁girl	-228
▁ro	-229
way	-230
▁go	-231
hed	-232
my	-233
▁are	-234
▁out	-235
▁le	-236
▁fr	-237
ain	-238
▁But	-239
hen	-240
▁kn	-241
▁them	-242
um	-243
ax	-244
▁sad	-245
▁W	-246
▁Sue	-247
ul	-248
▁boy	-249
▁tree	-250
other	-251
▁have	-252
▁man	-253
▁Max	-254
▁cl	-255
▁loved	-256
▁looked	-257
oug	-258
▁found	-259
▁sp	-260
▁star	-261
one	-262
hing	-263
▁sc	-264
▁back	-265
own	-266
▁Ben	-267
are	-268
▁like	-269
ful	-270
side	-271
▁me	-272
▁bec	-273
▁Sam	-274
▁park	-275
ight	-276
ong	-277
▁car	-278
▁J	-279
op	-280
elt	-281
▁liked	-282
▁would	-283
▁make	-284
round	-285
▁la	-286
▁fa	-287
▁felt	-288
You	-289
ell	-290
▁see	-291
omet	-292
▁asked	-293
ag	-294
▁new	-295
▁no	-296
ice	-297
ouse	-298
▁started	-299
ared	-300
▁came	-301
▁al	-302
▁other	-303
ought	-304
iled	-305
▁F	-306
▁somet	-307
▁ag	-308
▁good	-309
▁small	-310
ss	-311
▁br	-312
▁smiled	-313
▁say	-314
ried	-315
ade	-316
▁Sp	-317
ings	-318
ob	-319
▁wor	-320
▁Spot	-321
▁find	-322
ia	-323
▁away	-324
ty	-325
▁put	-326
▁ex	-327
▁what	-328
▁something	-329
▁from	-330
▁made	-331
▁thought	-332
ened	-333
▁home	-334
▁playing	-335
▁co	-336
ook	-337
▁every	-338
▁wal	-339
▁mu	-340
uc	-341
ach	-342
arn	-343
▁ran	-344
ile	-345
ie	-346
▁Mia	-347
ave	-348
▁again	-349
▁some	-350
▁laug	-351
dd	-352
▁house	-353
▁down	-354
▁fl	-355
king	-356
▁took	-357
▁scared	-358
▁pr	-359
ny	-360
ure	-361
▁toys	-362
▁learn	-363
▁You	-364
if	-365
▁will	-366
▁box	-367
ick	-368
ret	-369
ab	-370
ep	-371
▁my	-372
▁around	-373
▁things	-374
▁your	-375
oud	-376
▁bl	-377
uck	-378
▁when	-379
ish	-380
▁lived	-381
▁fe	-382
▁then	-383
▁sun	-384
as	-385
▁sw	-386
▁So	-387
,"	-388
▁Mom	-389
▁ch	-390
us	-391
pped	-392
▁ab	-393
ank	-394
▁get	-395
ucy	-396
ump	-397
▁lot	-398
ist	-399
▁Lucy	-400
▁D	-401
oth	-402
ap	-403
▁tried	-404
▁know	-405
▁says	-406
▁got	-407
ited	-408
▁who	-409
Th	-410
▁kne	-411
ust	-412
▁many	-413
▁Bob	-414
nder	-415
▁int	-416
▁about	-417
▁pret	-418
▁dec	-419
▁any	-420
▁red	-421
ive	-422
▁knew	-423
ace	-424
ous	-425
▁more	-426
ise	-427
▁v	-428
▁care	-429
ally	-430
▁pic	-431
au	-432
qu	-433
▁hug	-434
▁learned	-435
▁po	-436
▁water	-437
fter	-438
▁became	-439
▁best	-440
▁And	-441
ause	-442
▁op	-443
▁gre	-444
▁E	-445
▁exc	-446
urp	-447
ways	-448
▁outside	-449
▁laughed	-450
▁look	-451
▁always	-452
▁decid	-453
▁show	-454
▁un	-455
ant	-456
▁room	-457
fe	-458
▁decided	-459
▁ho	-460
▁because	-461
▁into	-462
▁eat	-463
ite	-464
▁jump	-465
▁pe	-466
▁both	-467
ers	-468
▁Then	-469
▁dad	-470
udd	-471
▁ke	-472
▁one	-473
▁When	-474
nn	-475
▁this	-476
▁excited	-477
▁fast	-478
▁nice	-479
▁feel	-480
Yes	-481
▁run	-482
▁long	-483
▁Ann	-484
▁told	-485
▁sk	-486
▁am	-487
urpr	-488
our	-489
▁inside	-490
ull	-491
▁tr	-492
▁surpr	-493
▁mo	-494
▁His	-495
ink	-496
▁pretty	-497
iny	-498
▁sor	-499
▁take	-500
▁Fr	-501
og	-502
▁C	-503
▁sl	-504
▁each	-505
▁gave	-506
hat	-507
▁much	-508
▁gra	-509
lew	-510
▁rock	-511
▁how	-512
▁str	-513
ara	-514
imal	-515
▁animal	-516
ged	-517
▁need	-518
▁than	-519
▁Anna	-520
▁Amy	-521
ven	-522
etter	-523
▁tow	-524
▁or	-525
▁As	-526
▁under	-527
ess	-528
▁old	-529
▁sorry	-530
ge	-531
ised	-532
ro	-533
urt	-534
▁Sara	-535
▁cle	-536
▁fish	-537
▁walked	-538
▁clo	-539
and	-540
here	-541
▁bear	-542
ase	-543
ast	-544
▁hand	-545
urn	-546
▁We	-547
▁kind	-548
▁happened	-549
▁just	-550
▁flow	-551
▁Her	-552
▁food	-553
▁list	-554
▁didn	-555
▁te	-556
▁animals	-557
▁hig	-558
▁near	-559
▁wat	-560
▁In	-561
▁ide	-562
▁try	-563
ched	-564
▁sky	-565
ine	-566
▁sn	-567
pl	-568
ving	-569
▁fi	-570
▁us	-571
▁From	-572
▁idea	-573
▁better	-574
▁bug	-575
▁heard	-576
gry	-577
▁its	-578
▁tw	-579
▁let	-580
pec	-581
ate	-582
able	-583
ff	-584
▁en	-585
▁careful	-586
▁share	-587
▁if	-588
Thank	-589
▁fly	-590
▁stor	-591
ial	-592
▁flew	-593
more	-594
▁anymore	-595
▁spec	-596
▁special	-597
ion	-598
▁com	-599
▁lots	-600
▁never	-601
▁by	-602
lf	-603
ream	-604
▁dan	-605
▁bu	-606
▁fo	-607
▁wind	-608
▁don	-609
▁Every	-610
▁tal	-611
▁clean	-612
ort	-613
▁gr	-614
▁love	-615
rm	-616
ber	-617
▁end	-618
ople	-619
▁even	-620
▁mag	-621
▁K	-622
▁hard	-623
▁shiny	-624
udden	-625
▁fore	-626
▁over	-627
▁cake	-628
ak	-629
▁book	-630
▁col	-631
▁turn	-632
▁fam	-633
▁bad	-634
▁safe	-635
▁after	-636
ady	-637
uddenly	-638
▁people	-639
▁proud	-640
▁surprised	-641
pected	-642
Let	-643
▁high	-644
▁cu	-645
▁hurt	-646
▁come	-647
imb	-648
arden	-649
▁door	-650
▁garden	-651
bb	-652
▁ground	-653
▁opened	-654
▁picked	-655
▁loud	-656
▁climb	-657
expected	-658
▁unexpected	-659
hy	-660
▁gl	-661
▁che	-662
ild	-663
▁im	-664
▁give	-665
▁way	-666
ail	-667
▁thanked	-668
▁color	-669
▁blue	-670
▁still	-671
▁ever	-672
▁hugged	-673
▁P	-674
▁call	-675
▁far	-676
ip	-677
No	-678
▁off	-679
▁magic	-680
iz	-681
age	-682
ough	-683
ummy	-684
▁jumped	-685
▁should	-686
▁family	-687
▁par	-688
ool	-689
▁kid	-690
▁smile	-691
▁Jo	-692
hes	-693
uff	-694
▁place	-695
kay	-696
▁walk	-697
▁now	-698
ct	-699
▁great	-700
em	-701
▁qu	-702
▁Suddenly	-703
les	-704
▁strong	-705
▁stay	-706
▁unt	-707
▁sto	-708
aut	-709
▁forest	-710
ture	-711
ane	-712
▁bra	-713
itty	-714
▁frog	-715
▁bro	-716
▁until	-717
▁beaut	-718
dy	-719
▁squ	-720
▁stick	-721
▁next	-722
▁boat	-723
lease	-724
ning	-725
▁Sally	-726
▁After	-727
▁N	-728
▁happily	-729
▁listen	-730
aking	-731
▁kids	-732
▁tra	-733
▁Kitty	-734
ies	-735
iful	-736
▁beautiful	-737
▁app	-738
▁helped	-739
▁dra	-740
▁showed	-741
▁clos	-742
be	-743
▁imp	-744
▁story	-745
unny	-746
▁while	-747
▁town	-748
rel	-749
pt	-750
▁rain	-751
ress	-752
▁picture	-753
▁At	-754
oy	-755
▁being	-756
▁rem	-757
▁everyone	-758
ary	-759
ree	-760
▁mor	-761
▁R	-762
▁hat	-763
▁called	-764
▁met	-765
▁stopped	-766
▁ad	-767
▁game	-768
▁wo	-769
Can	-770
▁angry	-771
ger	-772
uffy	-773
▁soft	-774
▁Fin	-775
▁open	-776
▁truck	-777
▁keep	-778
▁cry	-779
▁yummy	-780
▁Th	-781
▁lost	-782
▁bed	-783
▁Let	-784
▁warm	-785
by	-786
vent	-787
▁Jack	-788
▁brave	-789
▁mouse	-790
▁ate	-791
oon	-792
ished	-793
▁de	-794
It	-795
fore	-796
▁doll	-797
so	-798
▁couldn	-799
▁watch	-800
▁leave	-801
▁also	-802
dded	-803
▁fell	-804
▁green	-805
▁face	-806
▁two	-807
▁Fl	-808
gan	-809
iss	-810
▁flowers	-811
bit	-812
ble	-813
▁noise	-814
What	-815
abbit	-816
irst	-817
owl	-818
▁where	-819
az	-820
ock	-821
▁soon	-822
self	-823
▁slide	-824
▁rabbit	-825
▁hole	-826
▁G	-827
▁before	-828
irrel	-829
▁pus	-830
ired	-831
▁sat	-832
illy	-833
▁hear	-834
▁Fluffy	-835
▁use	-836
▁pa	-837
▁kept	-838
Hi	-839
▁“	-840
▁squirrel	-841
ear	-842
ma	-843
▁nodded	-844
▁Now	-845
▁expl	-846
▁store	-847
▁cook	-848
▁hands	-849
Look	-850
▁birds	-851
▁pain	-852
▁going	-853
▁funny	-854
▁having	-855
day	-856
▁sing	-857
aybe	-858
uch	-859
▁ey	-860
aug	-861
▁catch	-862
aught	-863
▁Can	-864
uit	-865
▁yell	-866
▁think	-867
leep	-868
▁cra	-869
▁fin	-870
▁bre	-871
▁fix	-872
▁tired	-873
▁bunny	-874
▁used	-875
▁looking	-876
▁bus	-877
ange	-878
air	-879
▁work	-880
▁wr	-881
ting	-882
▁our	-883
▁pull	-884
We	-885
▁thr	-886
That	-887
thing	-888
▁wait	-889
▁kit	-890
▁sound	-891
▁jo	-892
▁has	-893
▁mean	-894
▁pond	-895
ember	-896
▁beh	-897
▁dr	-898
▁sunny	-899
led	-900
▁others	-901
▁ask	-902
ng	-903
chen	-904
▁kitchen	-905
▁talk	-906
▁flo	-907
▁dif	-908
▁pie	-909
rew	-910
▁head	-911
▁real	-912
▁first	-913
▁tri	-914
▁mommy	-915
▁eyes	-916
ello	-917
▁import	-918
Hello	-919
Mom	-920
▁fav	-921
▁Do	-922
joy	-923
▁z	-924
▁remember	-925
▁right	-926
▁flower	-927
▁con	-928
▁mess	-929
▁Wh	-930
▁party	-931
▁cold	-932
▁vo	-933
▁swe	-934
ious	-935
ft	-936
▁sand	-937
ac	-938
ath	-939
orn	-940
▁race	-941
▁curi	-942
imes	-943
▁important	-944
▁duck	-945
▁moral	-946
▁shared	-947
zy	-948
ount	-949
▁ice	-950
▁okay	-951
▁advent	-952
▁worked	-953
llow	-954
irt	-955
▁enjoy	-956
▁dress	-957
▁bright	-958
▁making	-959
▁curious	-960
▁own	-961
▁Dad	-962
▁tall	-963
▁hop	-964
reed	-965
▁hid	-966
▁favor	-967
▁ri	-968
hn	-969
▁sleep	-970
▁dis	-971
▁favorite	-972
Wow	-973
▁thing	-974
▁began	-975
▁mon	-976
▁bag	-977
▁hill	-978
▁cla	-979
Don	-980
▁draw	-981
▁rest	-982
▁here	-983
▁yard	-984
▁This	-985
▁tell	-986
▁John	-987
ster	-988
▁watched	-989
que	-990
▁follow	-991
▁move	-992
▁bel	-993
ect	-994
▁cut	-995
▁night	-996
▁agreed	-997
▁pick	-998
co	-999
▁block	-1000
▁hun	-1001
aper	-1002
lly	-1003
▁stop	-1004
▁behind	-1005
▁surprise	-1006
ied	-1007
▁sho	-1008
▁hot	-1009
▁table	-1010
▁grass	-1011
▁worry	-1012
▁dark	-1013
▁trees	-1014
▁voice	-1015
▁walking	-1016
fere	-1017
▁floor	-1018
▁farm	-1019
▁lion	-1020
▁top	-1021
▁differe	-1022
▁please	-1023
▁That	-1024
▁Mr	-1025
▁ru	-1026
▁song	-1027
▁Bobo	-1028
▁butter	-1029
▁tail	-1030
▁sweet	-1031
▁shout	-1032
▁colors	-1033
▁read	-1034
▁lady	-1035
▁forg	-1036
isy	-1037
▁Jane	-1038
▁leaves	-1039
▁closer	-1040
ign	-1041
▁cars	-1042
▁Timmy	-1043
▁turned	-1044
▁needed	-1045
▁tast	-1046
Why	-1047
aring	-1048
▁wood	-1049
▁cried	-1050
▁different	-1051
▁laugh	-1052
▁del	-1053
▁piece	-1054
ered	-1055
▁roll	-1056
▁adventure	-1057
▁fire	-1058
▁does	-1059
ike	-1060
▁cr	-1061
▁hungry	-1062
▁hair	-1063
▁paper	-1064
▁feeling	-1065
▁yellow	-1066
▁full	-1067
bo	-1068
▁prin	-1069
▁touch	-1070
▁wet	-1071
▁friendly	-1072
▁per	-1073
oom	-1074
ken	-1075
cked	-1076
▁Mommy	-1077
ached	-1078
▁swing	-1079
▁fruit	-1080
ient	-1081
▁broken	-1082
▁ready	-1083
▁All	-1084
bye	-1085
ppy	-1086
▁prom	-1087
▁another	-1088
▁light	-1089
▁pretend	-1090
▁dance	-1091
ater	-1092
▁climbed	-1093
where	-1094
▁listened	-1095
▁danc	-1096
▁running	-1097
▁only	-1098
▁plan	-1099
▁gone	-1100
▁swim	-1101
bbed	-1102
▁train	-1103
ila	-1104
ndma	-1105
sh	-1106
▁close	-1107
av	-1108
art	-1109
▁smell	-1110
aby	-1111
▁amaz	-1112
▁hold	-1113
▁blocks	-1114
▁wonder	-1115
▁repl	-1116
▁Everyone	-1117
▁Lila	-1118
▁butterf	-1119
▁sees	-1120
▁reached	-1121
▁wall	-1122
▁pu	-1123
oney	-1124
▁slow	-1125
▁helping	-1126
▁dri	-1127
▁cream	-1128
▁cool	-1129
▁glad	-1130
af	-1131
▁ant	-1132
▁less	-1133
▁been	-1134
▁goodbye	-1135
▁ac	-1136
▁fight	-1137
ather	-1138
ey	-1139
▁pushed	-1140
iced	-1141
▁fair	-1142
▁must	-1143
▁hide	-1144
▁moment	-1145
▁window	-1146
▁sit	-1147
▁ar	-1148
▁balloon	-1149
▁snow	-1150
▁child	-1151
▁explore	-1152
▁wished	-1153
▁baby	-1154
▁done	-1155
▁wag	-1156
▁ste	-1157
▁buy	-1158
▁stuck	-1159
▁perf	-1160
▁Just	-1161
▁Soon	-1162
▁thank	-1163
▁might	-1164
icy	-1165
▁name	-1166
ized	-1167
▁trying	-1168
▁bit	-1169
▁coming	-1170
▁bar	-1171
▁quick	-1172
▁fall	-1173
▁apple	-1174
▁To	-1175
▁scary	-1176
ash	-1177
▁looks	-1178
▁build	-1179
▁doing	-1180
irty	-1181
▁win	-1182
▁underst	-1183
aisy	-1184
▁din	-1185
▁dream	-1186
▁There	-1187
▁dirty	-1188
▁held	-1189
ames	-1190
▁books	-1191
▁mar	-1192
▁butterfly	-1193
▁left	-1194
▁shouted	-1195
▁count	-1196
▁replied	-1197
avy	-1198
▁reach	-1199
▁tiny	-1200
▁through	-1201
ott	-1202
▁dro	-1203
▁why	-1204
▁air	-1205
▁bran	-1206
▁land	-1207
key	-1208
▁three	-1209
▁pulled	-1210
▁spl	-1211
▁grow	-1212
▁treat	-1213
▁brother	-1214
▁wise	-1215
▁woods	-1216
▁sure	-1217
▁chair	-1218
ix	-1219
▁mat	-1220
ins	-1221
▁seen	-1222
▁pink	-1223
▁clapped	-1224
▁plant	-1225
ely	-1226
▁owl	-1227
▁cup	-1228
ield	-1229
▁sometimes	-1230
andy	-1231
▁fill	-1232
▁cloud	-1233
ask	-1234
▁swam	-1235
outh	-1236
▁job	-1237
▁colorful	-1238
▁Inside	-1239
▁remembered	-1240
▁bigger	-1241
▁nest	-1242
▁mouth	-1243
Okay	-1244
▁lesson	-1245
▁join	-1246
▁cre	-1247
ph	-1248
oup	-1249
room	-1250
▁waved	-1251
uddy	-1252
▁grabbed	-1253
▁stayed	-1254
Oh	-1255
▁paint	-1256
▁clot	-1257
▁cont	-1258
▁clothes	-1259
ower	-1260
▁Daisy	-1261
▁waited	-1262
▁quickly	-1263
cle	-1264
▁word	-1265
▁broke	-1266
ucky	-1267
▁games	-1268
▁cast	-1269
▁Buddy	-1270
▁blew	-1271
▁gent	-1272
▁Finally	-1273
▁While	-1274
▁enjoyed	-1275
▁noticed	-1276
ries	-1277
ation	-1278
▁set	-1279
▁likes	-1280
▁pictures	-1281
▁mus	-1282
ton	-1283
de	-1284
▁sea	-1285
▁heavy	-1286
▁alone	-1287
▁gif	-1288
asure	-1289
▁anything	-1290
▁spot	-1291
▁miss	-1292
▁hopped	-1293
▁world	-1294
▁turns	-1295
orm	-1296
▁year	-1297
der	-1298
▁bott	-1299
▁pat	-1300
▁pot	-1301
This	-1302
▁pen	-1303
lc	-1304
▁Sarah	-1305
▁mix	-1306
▁arm	-1307
▁bike	-1308
▁tight	-1309
▁Tommy	-1310
▁everywhere	-1311
▁won	-1312
▁tower	-1313
▁threw	-1314
▁himself	-1315
▁followed	-1316
▁ride	-1317
man	-1318
ere	-1319
pe	-1320
less	-1321
▁ju	-1322
▁je	-1323
amp	-1324
ape	-1325
▁comp	-1326
▁key	-1327
eddy	-1328
row	-1329
▁What	-1330
".	-1331
▁white	-1332
ctor	-1333
▁wrong	-1334
▁makes	-1335
▁break	-1336
arent	-1337
▁black	-1338
ee	-1339
ner	-1340
▁deep	-1341
thy	-1342
▁music	-1343
▁Em	-1344
▁pol	-1345
▁delic	-1346
cess	-1347
ued	-1348
▁forgot	-1349
▁bee	-1350
▁parent	-1351
olly	-1352
▁castle	-1353
ves	-1354
▁em	-1355
Do	-1356
iet	-1357
▁wear	-1358
▁hit	-1359
▁ve	-1360
ister	-1361
oun	-1362
▁quiet	-1363
▁round	-1364
▁Billy	-1365
ance	-1366
▁stu	-1367
▁danced	-1368
▁vis	-1369
ully	-1370
▁wants	-1371
▁leaf	-1372
▁monster	-1373
▁nap	-1374
▁understand	-1375
ang	-1376
▁bowl	-1377
os	-1378
rot	-1379
▁bor	-1380
▁talked	-1381
itten	-1382
ren	-1383
▁dry	-1384
▁faster	-1385
▁cookies	-1386
▁Gra	-1387
▁Joe	-1388
▁brought	-1389
fully	-1390
▁leg	-1391
ross	-1392
▁mum	-1393
zz	-1394
▁side	-1395
▁sign	-1396
▁smart	-1397
cy	-1398
▁rocks	-1399
▁someone	-1400
▁poin	-1401
▁sec	-1402
▁sharing	-1403
▁fox	-1404
▁well	-1405
▁res	-1406
▁rel	-1407
▁happen	-1408
▁button	-1409
▁branch	-1410
▁really	-1411
▁finished	-1412
ence	-1413
ards	-1414
▁dinner	-1415
▁sister	-1416
▁flying	-1417
▁contin	-1418
▁worried	-1419
▁ele	-1420
▁Z	-1421
▁visit	-1422
▁Maybe	-1423
▁beach	-1424
▁que	-1425
th	-1426
▁secret	-1427
▁el	-1428
▁king	-1429
▁gift	-1430
gy	-1431
▁today	-1432
▁perfect	-1433
▁river	-1434
▁everything	-1435
▁silly	-1436
▁shin	-1437
ipp	-1438
▁danger	-1439
▁children	-1440
▁gu	-1441
▁field	-1442
▁filled	-1443
▁fur	-1444
▁else	-1445
▁smiles	-1446
▁welc	-1447
▁wish	-1448
▁sang	-1449
▁gi	-1450
ze	-1451
▁pudd	-1452
▁snack	-1453
▁eating	-1454
▁realized	-1455
▁pieces	-1456
▁promised	-1457
▁Ch	-1458
ord	-1459
▁spr	-1460
▁pig	-1461
▁free	-1462
▁continued	-1463
▁start	-1464
▁bite	-1465
ead	-1466
▁parents	-1467
▁carefully	-1468
ated	-1469
itting	-1470
▁jar	-1471
▁cow	-1472
Maybe	-1473
▁blank	-1474
▁drag	-1475
stead	-1476
▁orange	-1477
▁mud	-1478
▁crying	-1479
▁blanket	-1480
▁enough	-1481
▁rolled	-1482
cket	-1483
▁soup	-1484
▁sail	-1485
▁purp	-1486
imi	-1487
▁yes	-1488
ale	-1489
▁drink	-1490
▁snake	-1491
ses	-1492
▁boun	-1493
▁pet	-1494
▁crab	-1495
▁throw	-1496
▁laughing	-1497
▁fairy	-1498
▁words	-1499
▁amazing	-1500
▁Jim	-1501
▁bath	-1502
ich	-1503
▁purple	-1504
▁Jen	-1505
▁without	-1506
ire	-1507
▁Mimi	-1508
▁bottle	-1509
▁grandma	-1510
used	-1511
ons	-1512
▁past	-1513
▁money	-1514
iver	-1515
fort	-1516
▁mail	-1517
▁barked	-1518
▁wagged	-1519
▁att	-1520
chool	-1521
▁monkey	-1522
▁doctor	-1523
unch	-1524
▁brown	-1525
▁moved	-1526
ises	-1527
▁asks	-1528
▁Bl	-1529
▁getting	-1530
▁closed	-1531
▁whe	-1532
▁welcome	-1533
▁su	-1534
▁candy	-1535
▁school	-1536
▁morning	-1537
▁owner	-1538
gg	-1539
▁lon	-1540
▁mother	-1541
.”	-1542
▁higher	-1543
▁sitting	-1544
▁treasure	-1545
▁smo	-1546
!”	-1547
▁dangerous	-1548
▁lonely	-1549
▁living	-1550
▁apples	-1551
▁shop	-1552
ased	-1553
▁strange	-1554
vel	-1555
ush	-1556
▁shining	-1557
▁road	-1558
▁creat	-1559
una	-1560
▁paw	-1561
▁-	-1562
▁ra	-1563
▁shoes	-1564
▁pre	-1565
ible	-1566
▁stre	-1567
▁talking	-1568
althy	-1569
▁caught	-1570
▁egg	-1571
ol	-1572
▁pass	-1573
me	-1574
▁lake	-1575
▁runs	-1576
▁buck	-1577
▁letter	-1578
▁wings	-1579
▁chee	-1580
fish	-1581
▁mad	-1582
▁fan	-1583
asket	-1584
▁basket	-1585
ass	-1586
▁dragon	-1587
app	-1588
But	-1589
set	-1590
cks	-1591
▁stone	-1592
▁thinks	-1593
Tim	-1594
▁stand	-1595
▁delicious	-1596
▁nose	-1597
▁puddle	-1598
▁tom	-1599
▁belie	-1600
▁farmer	-1601
▁same	-1602
▁years	-1603
board	-1604
▁teddy	-1605
▁bat	-1606
isk	-1607
itch	-1608
▁mine	-1609
▁sear	-1610
▁coat	-1611
ches	-1612
▁Emma	-1613
igh	-1614
▁days	-1615
▁bring	-1616
▁gentle	-1617
▁fit	-1618
▁Together	-1619
▁finally	-1620
▁whist	-1621
ars	-1622
▁cray	-1623
igg	-1624
▁scream	-1625
▁kite	-1626
▁Molly	-1627
▁heart	-1628
▁pill	-1629
phant	-1630
arm	-1631
▁Re	-1632
▁vill	-1633
▁cho	-1634
▁singing	-1635
The	-1636
ella	-1637
sw	-1638
ined	-1639
▁tasty	-1640
▁ben	-1641
▁ph	-1642
▁trou	-1643
▁shell	-1644
▁herself	-1645
▁hoped	-1646
▁answ	-1647
▁wore	-1648
▁swings	-1649
sy	-1650
▁hor	-1651
▁belong	-1652
Please	-1653
▁push	-1654
iskers	-1655
▁carrot	-1656
▁arri	-1657
aughty	-1658
▁teach	-1659
▁Blue	-1660
bow	-1661
ract	-1662
▁naughty	-1663
▁bush	-1664
▁elephant	-1665
▁dropped	-1666
▁shap	-1667
ier	-1668
▁coll	-1669
sc	-1670
▁teac	-1671
▁woke	-1672
red	-1673
ball	-1674
▁pile	-1675
▁hiding	-1676
▁cour	-1677
▁Their	-1678
▁Whiskers	-1679
▁part	-1680
isa	-1681
erry	-1682
▁touc	-1683
▁min	-1684
▁puppy	-1685
▁seem	-1686
llie	-1687
▁twins	-1688
ama	-1689
▁lunch	-1690
▁bow	-1691
▁sack	-1692
▁Remy	-1693
▁pers	-1694
Tom	-1695
▁course	-1696
▁cheered	-1697
▁shapes	-1698
▁grew	-1699
▁Bella	-1700
fused	-1701
▁rope	-1702
▁village	-1703
irth	-1704
irthday	-1705
▁juice	-1706
ipped	-1707
▁rainbow	-1708
▁Lisa	-1709
▁spin	-1710
OK	-1711
▁Mark	-1712
▁shook	-1713
▁spoon	-1714
▁bench	-1715
▁street	-1716
▁fence	-1717
▁cute	-1718
▁Le	-1719
▁rob	-1720
▁nut	-1721
▁cheese	-1722
▁prob	-1723
▁touched	-1724
idge	-1725
col	-1726
▁joy	-1727
▁Jill	-1728
▁arrived	-1729
▁seed	-1730
▁war	-1731
▁teacher	-1732
▁corn	-1733
Good	-1734
▁forever	-1735
▁able	-1736
▁bell	-1737
▁few	-1738
▁carry	-1739
▁Grandma	-1740
▁most	-1741
▁plane	-1742
lem	-1743
▁eas	-1744
▁sounds	-1745
lla	-1746
▁des	-1747
▁spo	-1748
▁problem	-1749
▁birthday	-1750
▁inc	-1751
▁power	-1752
umb	-1753
br	-1754
▁bugs	-1755
ilk	-1756
▁wonderful	-1757
▁Thank	-1758
▁dolls	-1759
▁busy	-1760
ato	-1761
irp	-1762
▁wra	-1763
▁promise	-1764
▁feels	-1765
ian	-1766
eter	-1767
▁bread	-1768
ost	-1769
▁neck	-1770
▁milk	-1771
▁robot	-1772
▁rec	-1773
▁shy	-1774
ountain	-1775
▁kiss	-1776
▁band	-1777
▁cave	-1778
▁pocket	-1779
eb	-1780
ub	-1781
▁helpful	-1782
gly	-1783
▁slowly	-1784
▁believe	-1785
▁shake	-1786
umpy	-1787
eared	-1788
▁patient	-1789
▁pop	-1790
▁ob	-1791
arp	-1792
▁live	-1793
▁storm	-1794
▁Fred	-1795
▁holding	-1796
▁ugly	-1797
▁towards	-1798
▁upset	-1799
▁turt	-1800
▁shr	-1801
adow	-1802
▁cover	-1803
▁kitten	-1804
▁sharp	-1805
▁disapp	-1806
▁stories	-1807
▁suc	-1808
▁honey	-1809
ove	-1810
read	-1811
▁noises	-1812
▁cir	-1813
▁balls	-1814
▁Later	-1815
▁spark	-1816
▁gray	-1817
▁dist	-1818
▁dirt	-1819
oggy	-1820
▁late	-1821
▁driver	-1822
▁seat	-1823
▁bucket	-1824
▁meet	-1825
▁young	-1826
▁amazed	-1827
▁turtle	-1828
alm	-1829
▁spid	-1830
▁treats	-1831
▁Be	-1832
▁magical	-1833
unt	-1834
ator	-1835
▁glow	-1836
▁seek	-1837
▁zoom	-1838
▁lem	-1839
▁sandw	-1840
fortable	-1841
umber	-1842
▁trip	-1843
▁mist	-1844
▁splas	-1845
▁Leo	-1846
ourn	-1847
▁mark	-1848
▁journ	-1849
▁fold	-1850
▁mach	-1851
▁puzz	-1852
ling	-1853
▁horse	-1854
▁wild	-1855
▁organ	-1856
▁princess	-1857
pping	-1858
oose	-1859
▁cookie	-1860
ens	-1861
▁hugs	-1862
Lily	-1863
▁taking	-1864
ung	-1865
▁wheel	-1866
epend	-1867
▁cloth	-1868
▁sug	-1869
▁instead	-1870
▁bubb	-1871
▁string	-1872
▁net	-1873
▁drove	-1874
iling	-1875
▁rude	-1876
▁huge	-1877
▁coin	-1878
▁stars	-1879
▁fighting	-1880
▁spicy	-1881
▁lucky	-1882
Sure	-1883
Of	-1884
▁craw	-1885
Hey	-1886
▁bone	-1887
▁inv	-1888
ors	-1889
not	-1890
▁Mary	-1891
▁ca	-1892
pper	-1893
▁forget	-1894
up	-1895
▁di	-1896
aur	-1897
▁sal	-1898
ert	-1899
▁cannot	-1900
▁whistle	-1901
▁card	-1902
▁sick	-1903
▁path	-1904
▁cou	-1905
▁spider	-1906
▁wide	-1907
▁Mama	-1908
▁foot	-1909
▁snowman	-1910
▁life	-1911
▁songs	-1912
▁pillow	-1913
ize	-1914
▁Bu	-1915
▁fixed	-1916
▁Cat	-1917
est	-1918
▁giant	-1919
rill	-1920
▁cart	-1921
▁With	-1922
▁nod	-1923
▁boss	-1924
ular	-1925
▁last	-1926
▁comes	-1927
▁joke	-1928
▁Luna	-1929
▁moon	-1930
▁taste	-1931
den	-1932
▁machine	-1933
▁grumpy	-1934
▁Daddy	-1935
▁wave	-1936
▁thin	-1937
▁drive	-1938
▁ash	-1939
▁ser	-1940
▁grab	-1941
▁peace	-1942
▁daddy	-1943
ery	-1944
▁sel	-1945
▁shelf	-1946
▁hidden	-1947
erest	-1948
▁suddenly	-1949
▁wasn	-1950
▁write	-1951
▁landed	-1952
▁confused	-1953
lower	-1954
▁ring	-1955
▁change	-1956
▁worm	-1957
oop	-1958
▁interest	-1959
▁chased	-1960
▁fruits	-1961
▁sour	-1962
ity	-1963
▁myster	-1964
▁bark	-1965
▁rad	-1966
▁smooth	-1967
▁Come	-1968
▁adventures	-1969
▁val	-1970
▁stepped	-1971
▁fle	-1972
ope	-1973
▁oven	-1974
▁Chirp	-1975
▁takes	-1976
▁missed	-1977
let	-1978
▁selfish	-1979
kin	-1980
▁sheep	-1981
▁messy	-1982
▁across	-1983
▁ent	-1984
▁exp	-1985
to	-1986
▁ce	-1987
▁later	-1988
elly	-1989
ife	-1990
ever	-1991
▁sticks	-1992
▁tie	-1993
pect	-1994
▁step	-1995
▁bought	-1996
▁drew	-1997
▁ban	-1998
box	-1999
?”	-2000
▁wash	-2001
▁lay	-2002
▁pour	-2003
ose	-2004
▁beak	-2005
▁jog	-2006
▁grate	-2007
▁Momo	-2008
▁ducks	-2009
▁spe	-2010
▁legs	-2011
ugg	-2012
▁fil	-2013
▁emp	-2014
mer	-2015
▁hope	-2016
▁tea	-2017
▁empty	-2018
▁slid	-2019
▁feather	-2020
▁shirt	-2021
▁sleepy	-2022
▁drum	-2023
amed	-2024
▁Chirpy	-2025
▁zoo	-2026
▁pan	-2027
eth	-2028
▁phone	-2029
▁grateful	-2030
▁fing	-2031
ions	-2032
▁Ollie	-2033
▁lemon	-2034
▁clever	-2035
▁smelly	-2036
▁imag	-2037
▁interesting	-2038
▁save	-2039
▁chick	-2040
▁calm	-2041
▁splash	-2042
▁med	-2043
▁watching	-2044
izzy	-2045
▁Jerry	-2046
izz	-2047
▁plate	-2048
▁ign	-2049
▁Bunny	-2050
yard	-2051
▁clouds	-2052
▁banan	-2053
▁line	-2054
▁faces	-2055
▁ba	-2056
▁act	-2057
▁though	-2058
▁wolf	-2059
▁backyard	-2060
wel	-2061
▁seemed	-2062
▁dogs	-2063
▁Jimmy	-2064
▁spray	-2065
▁Doggy	-2066
Come	-2067
▁prot	-2068
▁whole	-2069
▁mot	-2070
▁fancy	-2071
▁quest	-2072
▁arms	-2073
▁puzzle	-2074
▁healthy	-2075
▁supp	-2076
ward	-2077
▁finish	-2078
erly	-2079
▁along	-2080
llo	-2081
▁rocket	-2082
▁explain	-2083
ult	-2084
dge	-2085
▁easy	-2086
ont	-2087
▁jewel	-2088
▁pract	-2089
▁jelly	-2090
▁tid	-2091
▁fake	-2092
▁crayons	-2093
▁wondered	-2094
▁maybe	-2095
▁scar	-2096
▁ship	-2097
onest	-2098
▁emb	-2099
iger	-2100
▁pool	-2101
▁longer	-2102
▁St	-2103
▁anyone	-2104
ually	-2105
▁front	-2106
▁working	-2107
▁gives	-2108
irr	-2109
▁pack	-2110
▁such	-2111
▁nothing	-2112
ocked	-2113
ment	-2114
▁bossy	-2115
▁trouble	-2116
▁smelled	-2117
▁saved	-2118
▁pin	-2119
rass	-2120
▁neigh	-2121
St	-2122
arrass	-2123
iting	-2124
▁honest	-2125
▁av	-2126
arge	-2127
▁embarrass	-2128
▁lift	-2129
▁van	-2130
▁forgive	-2131
▁tidy	-2132
▁weak	-2133
urse	-2134
▁puts	-2135
unk	-2136
▁kick	-2137
▁Mum	-2138
▁mind	-2139
▁neighb	-2140
▁plants	-2141
▁Bobby	-2142
▁sol	-2143
▁gently	-2144
▁cozy	-2145
orrow	-2146
▁print	-2147
ming	-2148
▁explor	-2149
sp	-2150
▁mistake	-2151
▁yog	-2152
oc	-2153
oomy	-2154
▁pointed	-2155
▁lad	-2156
▁af	-2157
▁stood	-2158
ork	-2159
▁onto	-2160
▁jumping	-2161
▁waiting	-2162
▁prince	-2163
▁cross	-2164
▁lock	-2165
▁cheer	-2166
▁queen	-2167
▁Why	-2168
▁wing	-2169
ones	-2170
we	-2171
▁large	-2172
▁lovely	-2173
▁sur	-2174
▁ret	-2175
▁deer	-2176
▁chew	-2177
▁couch	-2178
▁bal	-2179
▁My	-2180
▁stret	-2181
aughter	-2182
era	-2183
▁places	-2184
Be	-2185
▁ladder	-2186
▁return	-2187
raid	-2188
▁Somet	-2189
▁ear	-2190
▁ants	-2191
▁dish	-2192
▁afraid	-2193
▁cleaned	-2194
▁tomorrow	-2195
▁building	-2196
▁sandwich	-2197
▁person	-2198
ek	-2199
ned	-2200
▁pretended	-2201
▁bounce	-2202
▁wip	-2203
gest	-2204
▁match	-2205
▁rich	-2206
uce	-2207
▁pizz	-2208
▁gather	-2209
▁search	-2210
▁boring	-2211
▁Tiny	-2212
oman	-2213
▁teeth	-2214
▁hum	-2215
aced	-2216
▁daughter	-2217
▁woman	-2218
▁scarf	-2219
▁goes	-2220
▁law	-2221
My	-2222
▁stra	-2223
▁swimming	-2224
▁furry	-2225
▁splashed	-2226
▁Al	-2227
▁pri	-2228
▁loves	-2229
▁true	-2230
▁Bird	-2231
▁screamed	-2232
▁lazy	-2233
▁gen	-2234
▁answer	-2235
▁eag	-2236
▁number	-2237
▁ashamed	-2238
▁pizza	-2239
aw	-2240
▁appeared	-2241
▁fear	-2242
▁nearby	-2243
▁powerful	-2244
▁flag	-2245
▁hang	-2246
vous	-2247
▁clown	-2248
▁chase	-2249
▁motor	-2250
▁wand	-2251
▁Benny	-2252
▁TV	-2253
▁rub	-2254
▁success	-2255
▁chocol	-2256
▁If	-2257
▁creative	-2258
▁trust	-2259
▁wearing	-2260
▁noisy	-2261
▁matter	-2262
pa	-2263
▁dig	-2264
▁Ducky	-2265
▁hello	-2266
▁ner	-2267
▁tool	-2268
▁saf	-2269
ado	-2270
▁nervous	-2271
elp	-2272
▁test	-2273
▁smiling	-2274
▁sold	-2275
icked	-2276
oppy	-2277
osaur	-2278
▁circle	-2279
mb	-2280
Now	-2281
▁How	-2282
▁map	-2283
▁drank	-2284
▁class	-2285
▁tries	-2286
▁chocolate	-2287
▁Please	-2288
▁impress	-2289
▁knee	-2290
▁gener	-2291
▁dinosaur	-2292
▁polite	-2293
▁mirr	-2294
▁Go	-2295
▁balloons	-2296
▁gold	-2297
▁rare	-2298
▁protect	-2299
▁cand	-2300
Stop	-2301
▁Don	-2302
▁carried	-2303
ensive	-2304
▁ap	-2305
▁shadow	-2306
▁mirror	-2307
▁bald	-2308
▁gun	-2309
ina	-2310
▁expensive	-2311
▁reg	-2312
iff	-2313
▁mysterious	-2314
▁pump	-2315
▁note	-2316
▁hero	-2317
▁U	-2318
▁march	-2319
▁respect	-2320
▁har	-2321
arl	-2322
▁icy	-2323
▁weird	-2324
▁Bear	-2325
▁snee	-2326
▁cri	-2327
▁gate	-2328
▁soap	-2329
rag	-2330
ute	-2331
issors	-2332
▁poor	-2333
▁these	-2334
▁towel	-2335
▁whale	-2336
▁feet	-2337
▁tape	-2338
▁dizzy	-2339
itter	-2340
▁generous	-2341
ndpa	-2342
▁pres	-2343
nic	-2344
▁disco	-2345
Help	-2346
ventually	-2347
▁picnic	-2348
▁lead	-2349
▁mic	-2350
▁sque	-2351
▁Sometimes	-2352
▁embarrassed	-2353
▁journey	-2354
isp	-2355
▁sugar	-2356
scape	-2357
▁boot	-2358
▁tent	-2359
▁peaceful	-2360
▁fat	-2361
▁scissors	-2362
▁tasted	-2363
▁yelled	-2364
▁tick	-2365
▁mel	-2366
▁brush	-2367
▁Ella	-2368
▁dancing	-2369
ness	-2370
▁glue	-2371
▁hur	-2372
▁clap	-2373
▁rough	-2374
▁bridge	-2375
ote	-2376
▁decor	-2377
▁closet	-2378
▁crown	-2379
▁stir	-2380
▁Andy	-2381
ual	-2382
imp	-2383
owed	-2384
airs	-2385
ume	-2386
▁cap	-2387
▁lamp	-2388
▁vase	-2389
▁scare	-2390
lebr	-2391
▁relie	-2392
lves	-2393
any	-2394
▁eld	-2395
▁tele	-2396
▁celebr	-2397
▁gigg	-2398
▁whisp	-2399
▁log	-2400
▁blow	-2401
▁painted	-2402
▁sco	-2403
▁pay	-2404
erries	-2405
▁wis	-2406
▁berries	-2407
▁mixed	-2408
▁spread	-2409
▁wouldn	-2410
▁cage	-2411
▁bake	-2412
rob	-2413
getable	-2414
▁mountain	-2415
▁adm	-2416
▁drawing	-2417
▁become	-2418
▁Br	-2419
▁famous	-2420
▁knocked	-2421
▁bean	-2422
▁norm	-2423
▁vegetable	-2424
asp	-2425
▁kicked	-2426
ustr	-2427
▁shark	-2428
ser	-2429
▁incred	-2430
▁lose	-2431
▁normal	-2432
▁wrap	-2433
▁Some	-2434
ced	-2435
▁group	-2436
▁thick	-2437
▁3	-2438
▁fine	-2439
▁glass	-2440
▁ignor	-2441
oph	-2442
▁clock	-2443
▁team	-2444
▁Jenny	-2445
▁Pe	-2446
▁elderly	-2447
▁clear	-2448
▁corner	-2449
Max	-2450
▁frustr	-2451
▁mighty	-2452
robe	-2453
▁cone	-2454
▁incredible	-2455
ighed	-2456
▁moms	-2457
▁balance	-2458
▁sock	-2459
▁space	-2460
▁jam	-2461
ragile	-2462
▁fright	-2463
▁branches	-2464
▁organized	-2465
▁roar	-2466
port	-2467
▁sword	-2468
alous	-2469
▁guess	-2470
▁fool	-2471
▁sell	-2472
▁feed	-2473
▁Sammy	-2474
▁which	-2475
▁horn	-2476
Mommy	-2477
▁present	-2478
▁jealous	-2479
▁yarn	-2480
ony	-2481
▁fragile	-2482
▁burn	-2483
▁understood	-2484
▁mis	-2485
▁stubb	-2486
▁ter	-2487
Wh	-2488
▁frustrated	-2489
ray	-2490
▁hose	-2491
cient	-2492
Where	-2493
▁spent	-2494
▁shoe	-2495
▁taught	-2496
▁stubborn	-2497
▁twist	-2498
▁creature	-2499
▁chest	-2500
▁spoiled	-2501
▁relieved	-2502
▁ancient	-2503
▁Tr	-2504
ique	-2505
▁wake	-2506
▁fier	-2507
▁pray	-2508
▁fierce	-2509
▁eggs	-2510
▁cab	-2511
▁terri	-2512
▁barn	-2513
▁pumpkin	-2514
▁comfortable	-2515
▁ord	-2516
▁frightened	-2517
orry	-2518
▁toug	-2519
▁unique	-2520
▁measure	-2521
▁goat	-2522
▁wagon	-2523
▁unus	-2524
▁breath	-2525
▁foolish	-2526
▁'	-2527
▁useful	-2528
▁exploring	-2529
dle	-2530
▁straw	-2531
▁unusual	-2532
▁dug	-2533
▁clay	-2534
▁discover	-2535
▁tomato	-2536
▁dead	-2537
▁finding	-2538
▁police	-2539
▁wrote	-2540
▁clum	-2541
ym	-2542
▁exam	-2543
lace	-2544
▁Rex	-2545
▁waves	-2546
▁square	-2547
▁hears	-2548
▁cabin	-2549
▁tells	-2550
▁necklace	-2551
▁dull	-2552
▁clumsy	-2553
▁tough	-2554
▁bubbles	-2555
▁nosy	-2556
kn	-2557
▁searched	-2558
▁washed	-2559
▁bathroom	-2560
▁paws	-2561
▁Will	-2562
bby	-2563
ond	-2564
unn	-2565
anged	-2566
▁board	-2567
known	-2568
fic	-2569
▁asking	-2570
▁crazy	-2571
▁thankful	-2572
▁sunf	-2573
▁bitter	-2574
yal	-2575
▁pir	-2576
alk	-2577
▁ind	-2578
▁diffic	-2579
berry	-2580
▁rose	-2581
cil	-2582
▁swan	-2583
▁bloom	-2584
▁unknown	-2585
▁covered	-2586
▁difficult	-2587
▁add	-2588
▁pencil	-2589
▁finger	-2590
▁ham	-2591
▁hoop	-2592
▁jet	-2593
▁witch	-2594
▁drop	-2595
▁chicken	-2596
▁gloomy	-2597
apped	-2598
▁loyal	-2599
als	-2600
▁wealthy	-2601
com	-2602
light	-2603
▁Many	-2604
▁unl	-2605
▁cats	-2606
▁ending	-2607
▁guit	-2608
bled	-2609
Here	-2610
shine	-2611
▁dove	-2612
▁sort	-2613
▁joined	-2614
▁cher	-2615
anut	-2616
▁mov	-2617
▁terrible	-2618
▁yours	-2619
iant	-2620
▁salad	-2621
▁nuts	-2622
▁rat	-2623
▁lif	-2624
ground	-2625
▁tiger	-2626
▁potato	-2627
▁mask	-2628
xible	-2629
selves	-2630
▁value	-2631
▁changed	-2632
▁Brown	-2633
▁moving	-2634
▁exciting	-2635
ormous	-2636
▁body	-2637
▁Instead	-2638
▁toast	-2639
▁record	-2640
erp	-2641
▁zip	-2642
▁cheap	-2643
▁disg	-2644
▁guitar	-2645
irsty	-2646
▁knowing	-2647
▁adventur	-2648
▁yourself	-2649
▁enormous	-2650
▁hairy	-2651
▁shoot	-2652
▁bored	-2653
▁pepper	-2654
▁remind	-2655
ory	-2656
▁acorn	-2657
land	-2658
▁adventurous	-2659
▁sunshine	-2660
▁smaller	-2661
▁hats	-2662
▁stuff	-2663
▁solve	-2664
▁flexible	-2665
▁cost	-2666
rilliant	-2667
▁knife	-2668
▁perform	-2669
▁snacks	-2670
▁nods	-2671
▁shore	-2672
▁brilliant	-2673
▁thirsty	-2674
▁delicate	-2675
▁No	-2676
▁frown	-2677
▁disgust	-2678
▁collect	-2679
▁stri	-2680
▁seeds	-2681
▁counted	-2682
▁asleep	-2683
▁banana	-2684
reen	-2685
▁mailbox	-2686
iness	-2687
▁trick	-2688
▁dough	-2689
▁neighbor	-2690
Ben	-2691
ungle	-2692
▁heal	-2693
ilt	-2694
Who	-2695
live	-2696
▁Little	-2697
▁stage	-2698
ident	-2699
▁market	-2700
▁cube	-2701
▁stat	-2702
▁jungle	-2703
▁squee	-2704
mbre	-2705
▁explained	-2706
ates	-2707
▁umbre	-2708
Me	-2709
▁disgusting	-2710
▁lab	-2711
▁jolly	-2712
und	-2713
inal	-2714
▁fridge	-2715
▁crane	-2716
corn	-2717
▁suit	-2718
▁flash	-2719
pid	-2720
iddle	-2721
▁sunflower	-2722
ict	-2723
▁times	-2724
erpill	-2725
▁caterpill	-2726
▁relax	-2727
▁shiver	-2728
▁four	-2729
▁island	-2730
iginal	-2731
▁harm	-2732
ying	-2733
▁stupid	-2734
▁medic	-2735
▁comb	-2736
▁goose	-2737
▁cro	-2738
edient	-2739
▁Jake	-2740
▁stove	-2741
If	-2742
Are	-2743
▁independ	-2744
most	-2745
▁spring	-2746
▁gem	-2747
▁batter	-2748
▁sighed	-2749
▁vegetables	-2750
▁Your	-2751
▁stones	-2752
pes	-2753
▁shine	-2754
▁medicine	-2755
▁depend	-2756
▁rug	-2757
▁careless	-2758
▁original	-2759
▁stamp	-2760
▁gar	-2761
▁cries	-2762
gu	-2763
▁carrots	-2764
▁scr	-2765
▁successful	-2766
▁sauce	-2767
▁jeep	-2768
▁popcorn	-2769
▁meal	-2770
▁obedient	-2771
▁almost	-2772
▁middle	-2773
▁magn	-2774
▁study	-2775
▁independent	-2776
▁Emily	-2777
▁fearful	-2778
▁jack	-2779
met	-2780
inky	-2781
Sorry	-2782
▁escape	-2783
▁caterpillar	-2784
▁serious	-2785
▁peanut	-2786
▁bedroom	-2787
▁eager	-2788
aken	-2789
▁gets	-2790
▁parrot	-2791
▁statue	-2792
▁helmet	-2793
▁pebb	-2794
▁fountain	-2795
▁Today	-2796
▁ang	-2797
▁raven	-2798
▁pasta	-2799
▁umbrella	-2800
▁compet	-2801
arth	-2802
▁jacket	-2803
▁belonged	-2804
▁dest	-2805
▁filthy	-2806
▁design	-2807
▁borrow	-2808
▁cam	-2809
erable	-2810
▁houses	-2811
▁belt	-2812
▁prize	-2813
▁hay	-2814
▁brace	-2815
▁standing	-2816
▁miserable	-2817
▁bracelet	-2818
▁raced	-2819
▁taken	-2820
ages	-2821
▁fork	-2822
▁crayon	-2823
▁painting	-2824
▁triang	-2825
io	-2826
▁impressive	-2827
▁choose	-2828
▁fig	-2829
▁point	-2830
▁tied	-2831
iable	-2832
▁spotted	-2833
▁lifted	-2834
▁slipped	-2835
ours	-2836
▁tank	-2837
▁thoughtful	-2838
▁dependable	-2839
▁steal	-2840
▁garage	-2841
▁built	-2842
▁er	-2843
ipe	-2844
▁Sn	-2845
▁mole	-2846
▁crawled	-2847
▁scale	-2848
▁boats	-2849
▁pant	-2850
▁pian	-2851
▁hammer	-2852
▁bottom	-2853
▁True	-2854
▁cheerful	-2855
lph	-2856
▁using	-2857
▁Peter	-2858
▁smoke	-2859
▁picks	-2860
Sam	-2861
▁moder	-2862
▁shows	-2863
berries	-2864
rn	-2865
▁piano	-2866
▁magnet	-2867
dile	-2868
codile	-2869
▁hurts	-2870
inary	-2871
▁ref	-2872
▁crack	-2873
▁eng	-2874
oin	-2875
▁aunt	-2876
▁melon	-2877
▁Even	-2878
▁waff	-2879
▁modern	-2880
▁dolph	-2881
unnel	-2882
cream	-2883
pack	-2884
▁tunnel	-2885
▁arrow	-2886
▁mush	-2887
▁reliable	-2888
▁hopping	-2889
▁mushroom	-2890
▁jug	-2891
▁squash	-2892
▁gum	-2893
▁sink	-2894
▁movie	-2895
▁tax	-2896
▁flute	-2897
▁beet	-2898
▁lean	-2899
iv	-2900
▁popular	-2901
icop	-2902
icopter	-2903
▁cryst	-2904
▁ones	-2905
▁sil	-2906
▁competit	-2907
▁helicopter	-2908
aser	-2909
▁needs	-2910
ipop	-2911
llipop	-2912
▁crocodile	-2913
▁liz	-2914
▁press	-2915
▁troubled	-2916
▁pige	-2917
▁locked	-2918
▁tricks	-2919
▁lollipop	-2920
▁playful	-2921
▁humble	-2922
▁taxi	-2923
▁kissed	-2924
appy	-2925
▁low	-2926
comfortable	-2927
amond	-2928
▁rid	-2929
▁uncomfortable	-2930
host	-2931
▁wander	-2932
atch	-2933
▁angel	-2934
edy	-2935
cles	-2936
▁torn	-2937
▁grace	-2938
▁anx	-2939
▁wrapped	-2940
▁muff	-2941
▁twig	-2942
▁pants	-2943
▁disappoin	-2944
▁helps	-2945
▁diamond	-2946
▁camera	-2947
oto	-2948
▁anxious	-2949
▁ghost	-2950
atter	-2951
▁ruined	-2952
How	-2953
▁tears	-2954
▁Sus	-2955
cident	-2956
ilty	-2957
▁quar	-2958
aff	-2959
▁fis	-2960
opl	-2961
eropl	-2962
▁env	-2963
▁guilty	-2964
▁bull	-2965
▁aeropl	-2966
▁helpless	-2967
▁happiness	-2968
▁lizard	-2969
▁boys	-2970
cut	-2971
▁cere	-2972
▁walks	-2973
cean	-2974
▁passed	-2975
tt	-2976
▁meant	-2977
▁ocean	-2978
▁fluffy	-2979
▁wire	-2980
▁nail	-2981
▁deaf	-2982
zed	-2983
▁stretch	-2984
▁cact	-2985
▁candle	-2986
▁beetle	-2987
▁mop	-2988
▁harmless	-2989
umpet	-2990
▁ordinary	-2991
▁answered	-2992
▁cop	-2993
▁collar	-2994
▁bees	-2995
▁tire	-2996
▁shape	-2997
▁quarrel	-2998
▁radio	-2999
▁flashlight	-3000
▁crystal	-3001
▁harder	-3002
▁poured	-3003
▁trumpet	-3004
▁engine	-3005
▁persist	-3006
▁hunt	-3007
▁tooth	-3008
▁cereal	-3009
▁invited	-3010
▁comput	-3011
▁tag	-3012
▁office	-3013
▁melt	-3014
▁charm	-3015
▁spill	-3016
coa	-3017
▁lit	-3018
▁scoot	-3019
▁comet	-3020
▁triangle	-3021
ief	-3022
▁mug	-3023
▁rep	-3024
ube	-3025
▁yogurt	-3026
▁spend	-3027
▁compass	-3028
▁accident	-3029
▁shade	-3030
▁Pipp	-3031
hett	-3032
aghett	-3033
aghetti	-3034
▁disappointed	-3035
▁licked	-3036
▁cactus	-3037
▁pale	-3038
▁cush	-3039
▁figure	-3040
▁giving	-3041
▁regular	-3042
▁avoc	-3043
▁sheet	-3044
▁whispered	-3045
▁Poppy	-3046
aze	-3047
uth	-3048
ellig	-3049
▁Dan	-3050
▁create	-3051
▁barber	-3052
▁intellig	-3053
▁pipe	-3054
▁rode	-3055
▁roof	-3056
▁thread	-3057
ither	-3058
▁vi	-3059
▁libr	-3060
▁load	-3061
▁gifted	-3062
ccol	-3063
▁practiced	-3064
▁delight	-3065
ccoli	-3066
▁harsh	-3067
▁pow	-3068
asses	-3069
▁dust	-3070
▁bicy	-3071
azz	-3072
▁spaghetti	-3073
▁compassion	-3074
▁sailed	-3075
urkey	-3076
▁forward	-3077
ubby	-3078
▁persistent	-3079
▁speed	-3080
▁mitten	-3081
▁pro	-3082
▁cocoa	-3083
▁envel	-3084
▁Buzz	-3085
▁questions	-3086
▁computer	-3087
▁coo	-3088
▁feathers	-3089
▁glove	-3090
ging	-3091
▁rice	-3092
▁shrimp	-3093
▁desk	-3094
▁stream	-3095
▁inse	-3096
▁pigeon	-3097
▁charming	-3098
hip	-3099
▁ears	-3100
▁carp	-3101
lcan	-3102
▁envious	-3103
▁knot	-3104
▁turkey	-3105
▁stronger	-3106
omes	-3107
▁coins	-3108
▁tap	-3109
▁raft	-3110
lcano	-3111
weet	-3112
▁trap	-3113
▁Polly	-3114
umbers	-3115
▁aeroplane	-3116
▁trunk	-3117
▁wheat	-3118
▁boxes	-3119
▁carpet	-3120
▁chubby	-3121
▁restless	-3122
▁intelligent	-3123
▁tube	-3124
▁spun	-3125
▁dreams	-3126
▁half	-3127
▁friendship	-3128
ulif	-3129
olin	-3130
▁Mummy	-3131
▁loop	-3132
▁crawl	-3133
▁broccoli	-3134
▁onion	-3135
▁week	-3136
▁deliver	-3137
▁acce	-3138
▁vide	-3139
▁volcano	-3140
▁sle	-3141
▁track	-3142
▁bri	-3143
▁caulif	-3144
▁vine	-3145
ye	-3146
▁ticket	-3147
▁thief	-3148
essie	-3149
cycle	-3150
▁louder	-3151
▁insect	-3152
▁numbers	-3153
asing	-3154
▁yaw	-3155
▁haircut	-3156
ital	-3157
▁sleeping	-3158
▁Alice	-3159
▁mill	-3160
▁alert	-3161
▁eventually	-3162
▁excite	-3163
▁pebble	-3164
▁hosp	-3165
▁attract	-3166
▁planet	-3167
anger	-3168
▁univer	-3169
isted	-3170
ulu	-3171
▁eraser	-3172
▁hospital	-3173
▁returned	-3174
▁destro	-3175
▁graceful	-3176
▁happening	-3177
▁Bet	-3178
ache	-3179
▁OK	-3180
▁decide	-3181
▁learning	-3182
▁screen	-3183
rework	-3184
▁nicely	-3185
▁leop	-3186
▁cauliflower	-3187
▁competitive	-3188
▁poem	-3189
▁celebrate	-3190
▁Pet	-3191
acht	-3192
▁curt	-3193
▁peach	-3194
▁soldier	-3195
▁saus	-3196
▁parade	-3197
atient	-3198
▁attractive	-3199
▁curtain	-3200
▁base	-3201
▁dolphin	-3202
▁violin	-3203
▁ways	-3204
▁travel	-3205
ats	-3206
▁rod	-3207
▁ignorant	-3208
ulb	-3209
▁wheels	-3210
▁yacht	-3211
▁scatter	-3212
▁deter	-3213
▁compassionate	-3214
▁barrel	-3215
▁envelope	-3216
▁bubble	-3217
▁lying	-3218
▁firework	-3219
Go	-3220
▁Lulu	-3221
▁question	-3222
zzy	-3223
▁scooter	-3224
▁determ	-3225
▁rag	-3226
▁thu	-3227
▁bicycle	-3228
elery	-3229
▁needle	-3230
▁judge	-3231
▁bulb	-3232
▁leopard	-3233
▁tem	-3234
▁pony	-3235
▁cricket	-3236
▁homes	-3237
▁order	-3238
▁ador	-3239
tern	-3240
▁truth	-3241
▁hook	-3242
dom	-3243
▁rubbed	-3244
igator	-3245
▁bushes	-3246
▁uncle	-3247
▁Miss	-3248
▁cushion	-3249
▁spell	-3250
▁grown	-3251
Sue	-3252
▁cooked	-3253
▁adorable	-3254
▁chalk	-3255
▁soar	-3256
▁purse	-3257
▁skin	-3258
▁themselves	-3259
▁impatient	-3260
▁celery	-3261
▁tray	-3262
▁Sh	-3263
▁shells	-3264
▁pengu	-3265
▁sniff	-3266
▁prun	-3267
▁walls	-3268
▁seal	-3269
▁Pete	-3270
▁lively	-3271
▁case	-3272
▁alligator	-3273
▁distant	-3274
▁radish	-3275
▁saying	-3276
▁speak	-3277
▁motorcycle	-3278
▁Tina	-3279
▁meat	-3280
▁send	-3281
▁Birdy	-3282
▁spinning	-3283
▁forth	-3284
illa	-3285
▁counting	-3286
▁enth	-3287
▁bounced	-3288
▁chain	-3289
▁ed	-3290
▁cleaning	-3291
ebra	-3292
▁film	-3293
▁slept	-3294
▁pit	-3295
▁surf	-3296
▁marry	-3297
usia	-3298
▁wallet	-3299
▁enthusia	-3300
▁metal	-3301
urb	-3302
ebook	-3303
▁bin	-3304
▁notebook	-3305
▁skip	-3306
▁wiped	-3307
ision	-3308
chair	-3309
▁biggest	-3310
▁impro	-3311
▁avocado	-3312
▁behave	-3313
▁destroy	-3314
vator	-3315
▁Fo	-3316
▁bandage	-3317
▁laughs	-3318
▁steak	-3319
▁pattern	-3320
▁post	-3321
▁elevator	-3322
▁dive	-3323
▁shut	-3324
▁skipped	-3325
▁unlock	-3326
▁diary	-3327
dest	-3328
ject	-3329
▁mint	-3330
▁zebra	-3331
▁bags	-3332
ating	-3333
▁armchair	-3334
rage	-3335
aged	-3336
▁disturb	-3337
▁oy	-3338
▁pole	-3339
▁showing	-3340
▁club	-3341
▁gathered	-3342
▁nurse	-3343
bul	-3344
▁earth	-3345
▁enc	-3346
Sp	-3347
▁stranger	-3348
▁sweater	-3349
▁jellyfish	-3350
▁Susie	-3351
▁screw	-3352
▁Rob	-3353
▁temp	-3354
▁compl	-3355
▁mixer	-3356
Give	-3357
▁skull	-3358
▁bump	-3359
▁lime	-3360
bulance	-3361
▁Cl	-3362
▁ambulance	-3363
nam	-3364
▁father	-3365
▁journal	-3366
▁loudly	-3367
ito	-3368
▁folder	-3369
▁shield	-3370
▁library	-3371
▁buttons	-3372
▁playground	-3373
▁trucks	-3374
▁ink	-3375
▁lights	-3376
▁tummy	-3377
▁pointing	-3378
▁city	-3379
▁decorate	-3380
▁station	-3381
irit	-3382
▁prep	-3383
▁falls	-3384
quito	-3385
▁fu	-3386
ention	-3387
nger	-3388
▁Rose	-3389
▁herb	-3390
nament	-3391
▁ornament	-3392
▁modest	-3393
▁guard	-3394
lies	-3395
▁mos	-3396
▁knows	-3397
▁cord	-3398
▁polish	-3399
▁marble	-3400
▁mosquito	-3401
umbled	-3402
▁salt	-3403
▁attic	-3404
▁vest	-3405
▁whenever	-3406
ctop	-3407
▁resc	-3408
▁yet	-3409
▁ple	-3410
▁disappeared	-3411
oby	-3412
ceed	-3413
▁once	-3414
▁strawberry	-3415
▁kay	-3416
▁brothers	-3417
▁itch	-3418
▁pirate	-3419
▁football	-3420
▁split	-3421
kele	-3422
keleton	-3423
▁hipp	-3424
▁aut	-3425
▁led	-3426
uring	-3427
ctopus	-3428
▁driving	-3429
▁cable	-3430
▁support	-3431
▁calling	-3432
▁cupboard	-3433
aky	-3434
▁Sunny	-3435
ushed	-3436
▁wishes	-3437
▁complet	-3438
▁tripped	-3439
▁Tweet	-3440
▁People	-3441
▁root	-3442
▁kayak	-3443
▁octopus	-3444
obile	-3445
▁added	-3446
▁Zoom	-3447
▁edge	-3448
▁mild	-3449
stic	-3450
▁determined	-3451
▁succeed	-3452
?".	-3453
▁reading	-3454
▁coal	-3455
omobile	-3456
▁sung	-3457
utes	-3458
▁suggest	-3459
par	-3460
Well	-3461
▁stack	-3462
▁thunder	-3463
▁kindness	-3464
▁automobile	-3465
▁complain	-3466
▁enthusiastic	-3467
▁sneeze	-3468
▁cartoon	-3469
▁yoga	-3470
▁growl	-3471
htub	-3472
▁flea	-3473
▁meadow	-3474
▁drawer	-3475
▁bathtub	-3476
▁ribb	-3477
ophone	-3478
▁golf	-3479
▁hall	-3480
▁means	-3481
▁skeleton	-3482
▁Betty	-3483
▁math	-3484
▁veil	-3485
▁hunter	-3486
Re	-3487
▁gor	-3488
▁flame	-3489
▁poke	-3490
▁video	-3491
▁chess	-3492
▁cups	-3493
▁glowing	-3494
▁matt	-3495
▁oyster	-3496
work	-3497
▁penny	-3498
▁spear	-3499
lasses	-3500
▁itself	-3501
essert	-3502
▁drawings	-3503
▁hippo	-3504
▁repair	-3505
▁switch	-3506
▁sunglasses	-3507
▁teleph	-3508
▁costume	-3509
▁dessert	-3510
▁zipp	-3511
,”	-3512
▁repe	-3513
▁muffin	-3514
▁arg	-3515
▁pastry	-3516
▁pun	-3517
▁rolling	-3518
▁minutes	-3519
▁makeup	-3520
▁packed	-3521
iron	-3522
ric	-3523
▁waffle	-3524
case	-3525
▁handle	-3526
▁maze	-3527
▁pear	-3528
▁telephone	-3529
▁Toby	-3530
ophy	-3531
▁pine	-3532
ait	-3533
▁Pippin	-3534
▁gear	-3535
▁hedge	-3536
▁mattress	-3537
▁package	-3538
aving	-3539
▁shocked	-3540
ines	-3541
▁trophy	-3542
▁powder	-3543
▁knight	-3544
▁cob	-3545
▁Bessie	-3546
▁missile	-3547
▁frame	-3548
▁managed	-3549
▁encou	-3550
▁wife	-3551
Spot	-3552
▁ok	-3553
▁separ	-3554
web	-3555
▁stairs	-3556
▁rot	-3557
▁camp	-3558
time	-3559
urch	-3560
rophone	-3561
▁magaz	-3562
▁colour	-3563
▁strugg	-3564
▁grapes	-3565
old	-3566
▁file	-3567
▁Zip	-3568
head	-3569
▁basketball	-3570
Bye	-3571
per	-3572
▁cobweb	-3573
▁perm	-3574
▁wool	-3575
▁microphone	-3576
esday	-3577
▁eye	-3578
▁leash	-3579
▁gasp	-3580
iew	-3581
keep	-3582
▁weep	-3583
▁Spike	-3584
▁barking	-3585
ature	-3586
▁safely	-3587
▁tear	-3588
▁Snow	-3589
▁view	-3590
▁slides	-3591
offe	-3592
▁steps	-3593
istol	-3594
offee	-3595
▁bananas	-3596
▁staff	-3597
▁spirit	-3598
▁task	-3599
▁giggled	-3600
▁hoc	-3601
▁Look	-3602
▁hockey	-3603
▁vend	-3604
▁those	-3605
▁gorilla	-3606
▁cooler	-3607
was	-3608
cing	-3609
▁early	-3610
▁marched	-3611
rosc	-3612
washer	-3613
▁flour	-3614
▁hotel	-3615
▁sailor	-3616
▁Mar	-3617
hic	-3618
▁photo	-3619
roscope	-3620
▁vehic	-3621
ilot	-3622
▁oft	-3623
▁often	-3624
▁church	-3625
▁cooking	-3626
▁remain	-3627
▁Next	-3628
hin	-3629
▁five	-3630
▁Mrs	-3631
otter	-3632
▁sausage	-3633
▁ten	-3634
▁tools	-3635
See	-3636
▁medal	-3637
▁either	-3638
▁fireman	-3639
chor	-3640
▁grandpa	-3641
▁otter	-3642
▁baseball	-3643
▁pistol	-3644
▁pretending	-3645
▁dishwasher	-3646
▁rever	-3647
▁organize	-3648
▁pee	-3649
▁vendor	-3650
▁knock	-3651
▁sight	-3652
▁grill	-3653
▁temple	-3654
▁battery	-3655
▁thinking	-3656
▁opens	-3657
▁ow	-3658
▁Kim	-3659
▁Grandpa	-3660
▁realised	-3661
▁iron	-3662
▁laser	-3663
▁sne	-3664
▁oil	-3665
▁sandbox	-3666
▁Un	-3667
▁patch	-3668
▁hours	-3669
▁rise	-3670
▁whip	-3671
ctory	-3672
ne	-3673
▁Give	-3674
▁anchor	-3675
▁trash	-3676
▁skirt	-3677
ense	-3678
▁short	-3679
ney	-3680
▁rhin	-3681
▁factory	-3682
seum	-3683
▁may	-3684
▁ward	-3685
ately	-3686
▁cardboard	-3687
ugged	-3688
▁lotion	-3689
▁message	-3690
▁valu	-3691
▁wardrobe	-3692
▁cell	-3693
▁museum	-3694
apers	-3695
▁ur	-3696
ination	-3697
▁hanging	-3698
eer	-3699
ucet	-3700
ailable	-3701
▁hive	-3702
▁towers	-3703
keeper	-3704
▁blackboard	-3705
▁mem	-3706
loo	-3707
▁excitement	-3708
▁pilot	-3709
▁coffee	-3710
ready	-3711
▁napkin	-3712
▁penguin	-3713
▁check	-3714
▁reward	-3715
ron	-3716
▁quit	-3717
▁cane	-3718
▁picking	-3719
place	-3720
azor	-3721
▁ig	-3722
▁faucet	-3723
▁passport	-3724
▁stumbled	-3725
▁dreamed	-3726
▁igloo	-3727
enny	-3728
aroo	-3729
angaroo	-3730
▁freez	-3731
▁juicy	-3732
▁allowed	-3733
play	-3734
▁holds	-3735
▁already	-3736
▁available	-3737
▁sett	-3738
▁bathe	-3739
▁Everywhere	-3740
▁tornado	-3741
imney	-3742
▁fingers	-3743
htray	-3744
▁hanger	-3745
▁newsp	-3746
▁size	-3747
▁laund	-3748
▁lend	-3749
▁Before	-3750
▁chimney	-3751
▁laundry	-3752
▁oak	-3753
▁fisher	-3754
▁kangaroo	-3755
▁men	-3756
▁telling	-3757
▁novel	-3758
body	-3759
▁mummy	-3760
▁pal	-3761
▁mule	-3762
▁cherries	-3763
▁notice	-3764
▁practice	-3765
▁spilled	-3766
▁reind	-3767
▁complete	-3768
▁enjoying	-3769
▁microscope	-3770
ampoo	-3771
▁gain	-3772
▁sub	-3773
▁fireplace	-3774
▁imagine	-3775
anda	-3776
▁display	-3777
ocer	-3778
▁fastest	-3779
▁magazine	-3780
▁hurry	-3781
▁cabinet	-3782
▁shrink	-3783
▁Teddy	-3784
▁ashtray	-3785
Wait	-3786
▁cows	-3787
gen	-3788
▁palace	-3789
▁improve	-3790
aches	-3791
▁rake	-3792
arian	-3793
▁reindeer	-3794
▁falling	-3795
ilet	-3796
oceros	-3797
ured	-3798
▁Mandy	-3799
▁discovered	-3800
▁stared	-3801
▁roared	-3802
aid	-3803
▁silver	-3804
▁tub	-3805
▁trail	-3806
▁miner	-3807
There	-3808
come	-3809
▁bill	-3810
▁fog	-3811
iction	-3812
▁ax	-3813
stairs	-3814
▁hut	-3815
▁happier	-3816
▁toilet	-3817
▁taller	-3818
ictionary	-3819
▁oats	-3820
▁fisherman	-3821
▁object	-3822
▁por	-3823
vision	-3824
▁valuable	-3825
▁shampoo	-3826
▁Here	-3827
▁holes	-3828
▁offered	-3829
▁boots	-3830
▁rhinoceros	-3831
▁names	-3832
▁Dolly	-3833
▁climbing	-3834
▁blin	-3835
vice	-3836
▁stretched	-3837
iest	-3838
▁zipper	-3839
Is	-3840
▁listening	-3841
▁sym	-3842
▁bathrobe	-3843
alend	-3844
▁jewelry	-3845
▁jokes	-3846
▁television	-3847
▁prov	-3848
▁calend	-3849
▁stops	-3850
▁axe	-3851
▁jumps	-3852
▁fuel	-3853
cu	-3854
▁sparkly	-3855
▁perfume	-3856
▁bury	-3857
bol	-3858
▁pressed	-3859
Ow	-3860
lu	-3861
reek	-3862
▁rece	-3863
▁neat	-3864
▁creek	-3865
▁popped	-3866
▁opera	-3867
▁calendar	-3868
▁snap	-3869
▁attach	-3870
▁gasped	-3871
▁symbol	-3872
▁tuna	-3873
▁papers	-3874
▁unpack	-3875
▁resist	-3876
▁dictionary	-3877
▁subway	-3878
▁letters	-3879
▁freezer	-3880
▁chose	-3881
▁pinch	-3882
▁Mike	-3883
zag	-3884
▁spoke	-3885
▁anyway	-3886
▁super	-3887
▁porch	-3888
▁helper	-3889
affe	-3890
▁bikes	-3891
▁lie	-3892
iches	-3893
▁comfort	-3894
▁tightly	-3895
▁shaking	-3896
▁bookcase	-3897
▁Pandy	-3898
▁Are	-3899
▁son	-3900
▁razor	-3901
aurant	-3902
▁sandwiches	-3903
arry	-3904
▁ext	-3905
igzag	-3906
▁weigh	-3907
▁against	-3908
▁stickers	-3909
▁restaurant	-3910
▁newspaper	-3911
▁blouse	-3912
te	-3913
▁vehicle	-3914
▁swinging	-3915
▁ped	-3916
▁disag	-3917
▁nature	-3918
▁squirrels	-3919
ival	-3920
▁belongs	-3921
▁swamp	-3922
▁butterflies	-3923
▁gym	-3924
del	-3925
▁inclu	-3926
▁growing	-3927
▁buckle	-3928
omed	-3929
▁stirred	-3930
▁mustache	-3931
▁billboard	-3932
▁beep	-3933
xy	-3934
▁alarm	-3935
▁lip	-3936
▁fest	-3937
▁lightning	-3938
▁hung	-3939
utor	-3940
▁distance	-3941
▁cards	-3942
ogn	-3943
▁obser	-3944
▁agree	-3945
▁tease	-3946
▁recogn	-3947
▁rubber	-3948
ik	-3949
▁sof	-3950
▁hate	-3951
fast	-3952
▁doesn	-3953
▁musician	-3954
▁advice	-3955
▁fort	-3956
▁beef	-3957
▁serve	-3958
Ouch	-3959
aspoon	-3960
▁sweetie	-3961
ef	-3962
▁model	-3963
lter	-3964
▁crib	-3965
▁blueberries	-3966
▁sofa	-3967
▁circles	-3968
▁breakfast	-3969
▁tutor	-3970
asis	-3971
▁bookshe	-3972
▁Ellie	-3973
▁giraffe	-3974
stri	-3975
▁festival	-3976
▁separate	-3977
▁shelter	-3978
▁gas	-3979
▁airport	-3980
▁olive	-3981
▁Co	-3982
▁Dave	-3983
▁rail	-3984
▁bookshelf	-3985
▁frogs	-3986
▁teaspoon	-3987
▁reverse	-3988
▁junk	-3989
▁riding	-3990
▁pleased	-3991
▁drain	-3992
▁wipe	-3993
▁oasis	-3994
▁soil	-3995
▁ahead	-3996
▁rescue	-3997
▁leaving	-3998
▁Bill	-3999
ummer	-4000
▁Bubb	-4001
▁painter	-4002
▁chance	-4003
▁squeeze	-4004
▁knob	-4005
▁poked	-4006
▁peeked	-4007
▁lumber	-4008
Dad	-4009
▁trains	-4010
la	-4011
▁extra	-4012
▁slipp	-4013
▁Johnny	-4014
▁quiz	-4015
▁refused	-4016
res	-4017
rmomet	-4018
▁page	-4019
▁rules	-4020
▁happens	-4021
▁ins	-4022
▁sounded	-4023
▁winter	-4024
▁V	-4025
▁dancer	-4026
▁birdc	-4027
▁disappear	-4028
rmometer	-4029
▁Carl	-4030
▁waste	-4031
▁weather	-4032
▁birdcage	-4033
▁lic	-4034
▁reef	-4035
▁theater	-4036
▁carrying	-4037
▁Spe	-4038
▁invite	-4039
▁Bow	-4040
iform	-4041
▁goal	-4042
▁ostri	-4043
▁swung	-4044
▁uniform	-4045
▁trade	-4046
▁cliff	-4047
ience	-4048
▁lawn	-4049
ola	-4050
▁leaned	-4051
angu	-4052
▁accept	-4053
▁Boun	-4054
They	-4055
▁admire	-4056
▁accidentally	-4057
▁pastel	-4058
▁stom	-4059
▁Lee	-4060
▁langu	-4061
▁twir	-4062
▁suff	-4063
▁panda	-4064
na	-4065
▁bet	-4066
riger	-4067
rigerator	-4068
▁peek	-4069
render	-4070
▁blinked	-4071
▁starts	-4072
▁refrigerator	-4073
▁anywhere	-4074
!".	-4075
▁imagined	-4076
▁dreaming	-4077
▁remove	-4078
night	-4079
▁shower	-4080
▁ceiling	-4081
▁classroom	-4082
▁Buzzy	-4083
▁caring	-4084
ium	-4085
▁Soph	-4086
▁Where	-4087
▁grand	-4088
▁Jazz	-4089
▁missing	-4090
aked	-4091
▁license	-4092
▁stable	-4093
▁Big	-4094
▁monkeys	-4095
▁thermometer	-4096
astic	-4097
▁warned	-4098
▁summer	-4099
▁above	-4100
▁brick	-4101
ected	-4102
▁cudd	-4103
med	-4104
▁Pat	-4105
▁problems	-4106
amber	-4107
▁chasing	-4108
▁apron	-4109
▁label	-4110
▁sent	-4111
iture	-4112
▁lawy	-4113
urniture	-4114
▁lid	-4115
uggage	-4116
▁Binky	-4117
▁respectful	-4118
▁furniture	-4119
▁frowned	-4120
▁zoomed	-4121
▁pages	-4122
▁prevent	-4123
▁bent	-4124
▁Eventually	-4125
▁luggage	-4126
▁Red	-4127
▁Lola	-4128
▁mistakes	-4129
▁sunset	-4130
▁ostrich	-4131
He	-4132
ison	-4133
▁suggested	-4134
▁windows	-4135
ations	-4136
▁jail	-4137
▁wine	-4138
▁Freddy	-4139
▁ribbon	-4140
▁older	-4141
▁shouts	-4142
▁grape	-4143
▁wigg	-4144
ucture	-4145
▁structure	-4146
▁spoil	-4147
eor	-4148
▁fixing	-4149
▁chamber	-4150
▁lions	-4151
▁delay	-4152
▁finds	-4153
▁handed	-4154
▁searching	-4155
▁unite	-4156
▁fought	-4157
▁lawyer	-4158
▁brightly	-4159
▁meeting	-4160
▁pair	-4161
Did	-4162
▁choice	-4163
▁art	-4164
▁Hel	-4165
▁surprises	-4166
▁favour	-4167
eterin	-4168
adium	-4169
eterinarian	-4170
▁Y	-4171
low	-4172
▁stadium	-4173
▁proudly	-4174
iki	-4175
▁Geor	-4176
▁veterinarian	-4177
vet	-4178
▁chairs	-4179
▁slip	-4180
rod	-4181
Ann	-4182
▁sadly	-4183
▁incre	-4184
▁puddles	-4185
▁berry	-4186
▁introd	-4187
▁ranch	-4188
veal	-4189
▁argue	-4190
▁admired	-4191
▁Olive	-4192
▁favourite	-4193
▁cur	-4194
▁Pa	-4195
▁inf	-4196
Your	-4197
▁excitedly	-4198
▁rac	-4199
▁grabs	-4200
mend	-4201
▁steam	-4202
thank	-4203
▁human	-4204
▁Ru	-4205
sity	-4206
▁Speedy	-4207
▁pushing	-4208
▁saving	-4209
▁reveal	-4210
alley	-4211
ommend	-4212
▁yield	-4213
olog	-4214
▁mall	-4215
▁reminded	-4216
▁recommend	-4217
▁leak	-4218
▁surrender	-4219
▁harb	-4220
▁appl	-4221
cuss	-4222
▁weap	-4223
▁regret	-4224
▁putting	-4225
▁valley	-4226
▁Bubbles	-4227
▁George	-4228
▁Lilly	-4229
▁mineral	-4230
▁evening	-4231
elcome	-4232
▁forgave	-4233
▁matches	-4234
▁sneezed	-4235
▁aw	-4236
▁pup	-4237
▁rushed	-4238
ecause	-4239
▁spade	-4240
▁apolog	-4241
▁plates	-4242
▁discuss	-4243
▁prepare	-4244
▁harbor	-4245
▁ignore	-4246
▁Ow	-4247
▁country	-4248
▁language	-4249
▁pulls	-4250
▁plastic	-4251
▁supply	-4252
▁float	-4253
▁sniffed	-4254
▁replace	-4255
▁meas	-4256
▁shovel	-4257
▁raise	-4258
▁strip	-4259
▁fre	-4260
▁cared	-4261
▁socks	-4262
▁doors	-4263
▁mystery	-4264
▁lives	-4265
▁restore	-4266
▁sticker	-4267
▁sudden	-4268
ero	-4269
▁kinds	-4270
▁Paul	-4271
▁slippery	-4272
▁player	-4273
▁Zoomy	-4274
▁panic	-4275
ricane	-4276
▁Under	-4277
▁hoping	-4278
iday	-4279
▁shone	-4280
lex	-4281
ari	-4282
hero	-4283
▁beg	-4284
Anna	-4285
▁superhero	-4286
▁Kiki	-4287
▁delighted	-4288
▁gro	-4289
..	-4290
aud	-4291
chan	-4292
▁chickens	-4293
▁Charl	-4294
▁shoulder	-4295
▁rained	-4296
▁colourful	-4297
▁breat	-4298
▁claw	-4299
▁softly	-4300
rise	-4301
▁port	-4302
▁hol	-4303
icer	-4304
▁holiday	-4305
oof	-4306
▁barks	-4307
ason	-4308
▁throwing	-4309
▁planes	-4310
▁bend	-4311
Yay	-4312
▁shakes	-4313
oe	-4314
▁ended	-4315
▁infant	-4316
▁shivering	-4317
▁kneel	-4318
▁sunrise	-4319
Yuck	-4320
▁pushes	-4321
▁thanks	-4322
▁fresh	-4323
▁suffer	-4324
▁points	-4325
imed	-4326
wards	-4327
▁tip	-4328
▁freeze	-4329
▁keeping	-4330
▁Would	-4331
▁copper	-4332
▁giggle	-4333
▁Alex	-4334
▁smells	-4335
▁dear	-4336
▁enter	-4337
▁End	-4338
▁provide	-4339
cast	-4340
chanic	-4341
▁dishes	-4342
cond	-4343
▁unh	-4344
▁applaud	-4345
▁heads	-4346
▁hurricane	-4347
▁Ted	-4348
▁cherry	-4349
▁mass	-4350
▁menu	-4351
▁thumb	-4352
▁meowed	-4353
▁second	-4354
▁brighter	-4355
ince	-4356
▁sandcast	-4357
▁mechanic	-4358
▁wre	-4359
Mia	-4360
▁Danny	-4361
▁sprayed	-4362
▁event	-4363
▁letting	-4364
▁weapon	-4365
▁x	-4366
▁laught	-4367
▁laughter	-4368
▁Grace	-4369
▁clapping	-4370
▁feelings	-4371
▁Or	-4372
icky	-4373
▁splashing	-4374
ement	-4375
acked	-4376
▁castles	-4377
▁Joey	-4378
One	-4379
cer	-4380
▁score	-4381
apping	-4382
▁universe	-4383
▁navy	-4384
▁Hoppy	-4385
▁dem	-4386
▁sticky	-4387
▁row	-4388
▁rooms	-4389
▁flies	-4390
igi	-4391
▁unhappy	-4392
▁greedy	-4393
▁Sophie	-4394
▁dare	-4395
▁alive	-4396
▁breaks	-4397
▁ener	-4398
▁Bee	-4399
▁courage	-4400
▁invit	-4401
▁repeat	-4402
▁demand	-4403
Ready	-4404
▁Gigi	-4405
▁trusted	-4406
▁somewhere	-4407
▁prune	-4408
bles	-4409
▁wreck	-4410
▁skill	-4411
▁examine	-4412
▁parts	-4413
▁Hen	-4414
year	-4415
▁eaten	-4416
erc	-4417
▁mention	-4418
▁Help	-4419
▁raining	-4420
▁Annie	-4421
▁throws	-4422
▁jogged	-4423
quest	-4424
▁starting	-4425
▁rush	-4426
▁Charlie	-4427
▁Sque	-4428
▁chirp	-4429
▁poison	-4430
▁pirates	-4431
heart	-4432
▁vac	-4433
▁content	-4434
▁Su	-4435
▁sigh	-4436
▁flapped	-4437
▁drops	-4438
▁sport	-4439
Qu	-4440
▁sparkled	-4441
▁Henry	-4442
▁given	-4443
▁streng	-4444
▁steel	-4445
▁bumped	-4446
▁yawned	-4447
▁stud	-4448
▁request	-4449
▁scold	-4450
▁myself	-4451
▁strength	-4452
▁shrugged	-4453
▁coats	-4454
▁punish	-4455
▁equ	-4456
▁snugg	-4457
▁Sm	-4458
▁university	-4459
▁paid	-4460
▁pigs	-4461
▁scratch	-4462
▁toe	-4463
▁exerc	-4464
▁tracks	-4465
▁upstairs	-4466
▁prayed	-4467
▁crossed	-4468
▁squeezed	-4469
▁flood	-4470
▁impressed	-4471
▁expect	-4472
▁bouncing	-4473
▁rhy	-4474
▁rabbits	-4475
ges	-4476
▁badly	-4477
▁warn	-4478
▁leather	-4479
▁news	-4480
▁tide	-4481
▁Lucky	-4482
▁minute	-4483
▁Snowy	-4484
▁bears	-4485
▁claws	-4486
▁buzz	-4487
▁sweetheart	-4488
▁nation	-4489
▁Sk	-4490
thm	-4491
▁heat	-4492
▁hist	-4493
▁vacation	-4494
▁strawberries	-4495
▁observe	-4496
▁explored	-4497
▁settle	-4498
▁sandcastle	-4499
▁yawn	-4500
▁history	-4501
▁Finny	-4502
mare	-4503
▁See	-4504
▁Finn	-4505
ially	-4506
inking	-4507
▁believed	-4508
▁horses	-4509
▁Elly	-4510
▁checked	-4511
▁tour	-4512
▁network	-4513
▁cheek	-4514
▁offer	-4515
▁easily	-4516
▁placed	-4517
spec	-4518
▁spots	-4519
▁snowball	-4520
ween	-4521
men	-4522
▁energy	-4523
▁imagination	-4524
▁blueberry	-4525
▁between	-4526
otten	-4527
specially	-4528
izes	-4529
▁daisy	-4530
▁waving	-4531
reeze	-4532
reat	-4533
▁Harry	-4534
▁Fox	-4535
▁Tilly	-4536
▁vroom	-4537
▁soak	-4538
▁rhythm	-4539
▁safari	-4540
▁massage	-4541
▁stomach	-4542
▁baking	-4543
quake	-4544
▁nightmare	-4545
▁insisted	-4546
▁blowing	-4547
▁entered	-4548
▁stair	-4549
▁palm	-4550
▁beauty	-4551
▁twisted	-4552
▁bother	-4553
▁writing	-4554
▁scoop	-4555
▁prunes	-4556
▁brain	-4557
▁ing	-4558
▁Penny	-4559
ipment	-4560
▁hills	-4561
▁poppy	-4562
noon	-4563
▁afternoon	-4564
▁equipment	-4565
▁especially	-4566
hest	-4567
▁sir	-4568
▁pad	-4569
▁ingred	-4570
▁calls	-4571
▁ingredient	-4572
▁earthquake	-4573
▁ignored	-4574
▁burned	-4575
▁nobody	-4576
mble	-4577
▁sty	-4578
apa	-4579
▁sew	-4580
▁tug	-4581
isty	-4582
xygen	-4583
▁hearts	-4584
▁lear	-4585
▁learnt	-4586
▁lemonade	-4587
Sh	-4588
▁increase	-4589
▁Maria	-4590
▁gaz	-4591
▁backpack	-4592
▁mailman	-4593
▁pedal	-4594
▁whistled	-4595
▁shopkeeper	-4596
ffic	-4597
▁permit	-4598
▁tremble	-4599
▁Mill	-4600
▁yucky	-4601
anges	-4602
▁moves	-4603
▁Zara	-4604
▁introduce	-4605
▁lemons	-4606
▁crash	-4607
▁Mag	-4608
▁beans	-4609
▁floated	-4610
edn	-4611
ednesday	-4612
ittens	-4613
▁Wednesday	-4614
▁Coco	-4615
▁planned	-4616
Welcome	-4617
▁Ros	-4618
▁strike	-4619
▁traffic	-4620
Lucy	-4621
▁include	-4622
▁slap	-4623
▁racing	-4624
resses	-4625
▁Whenever	-4626
▁wisdom	-4627
▁pur	-4628
▁wags	-4629
laimed	-4630
▁luck	-4631
▁following	-4632
▁price	-4633
ecting	-4634
▁mama	-4635
▁pitch	-4636
▁below	-4637
▁Have	-4638
▁Sandy	-4639
▁Pip	-4640
▁Squeaky	-4641
▁weight	-4642
▁exclaimed	-4643
▁Owl	-4644
house	-4645
uct	-4646
▁buried	-4647
▁comf	-4648
▁follows	-4649
▁recognize	-4650
▁ingredients	-4651
▁Froggy	-4652
▁Mittens	-4653
▁Dog	-4654
▁furt	-4655
tain	-4656
▁Bounce	-4657
▁candles	-4658
▁marbles	-4659
riage	-4660
unday	-4661
emember	-4662
eration	-4663
▁apart	-4664
▁Sunday	-4665
▁growled	-4666
▁Is	-4667
▁Who	-4668
▁conf	-4669
▁hopes	-4670
▁folded	-4671
▁teaching	-4672
▁closely	-4673
▁chore	-4674
▁heel	-4675
▁encourage	-4676
▁Kate	-4677
▁zigzag	-4678
▁pulling	-4679
▁digg	-4680
▁bouncy	-4681
▁Millie	-4682
ippy	-4683
▁further	-4684
▁chewed	-4685
▁digging	-4686
▁winning	-4687
nce	-4688
Woof	-4689
▁dresses	-4690
▁image	-4691
rec	-4692
cery	-4693
▁shouting	-4694
▁Rock	-4695
▁grocery	-4696
▁twisty	-4697
Sara	-4698
▁peanuts	-4699
▁puzzles	-4700
▁James	-4701
bbing	-4702
look	-4703
▁scrat	-4704
▁chores	-4705
▁whisper	-4706
▁spike	-4707
▁cape	-4708
▁snail	-4709
▁acorns	-4710
▁worms	-4711
hood	-4712
▁Tw	-4713
▁deeper	-4714
▁urge	-4715
▁Pinky	-4716
ifi	-4717
▁Ro	-4718
▁Tony	-4719
▁Bluey	-4720
▁planted	-4721
▁attention	-4722
ecture	-4723
▁exercise	-4724
▁Baby	-4725
▁Papa	-4726
▁exper	-4727
▁cub	-4728
▁operation	-4729
▁underground	-4730
▁hon	-4731
▁agre	-4732
▁quite	-4733
▁creatures	-4734
▁simp	-4735
▁struggle	-4736
oral	-4737
ddy	-4738
▁blood	-4739
▁lecture	-4740
▁Fifi	-4741
▁May	-4742
▁washing	-4743
▁hurting	-4744
▁gifts	-4745
▁Sharing	-4746
▁vanished	-4747
▁dressed	-4748
▁invitation	-4749
▁solved	-4750
▁licks	-4751
▁snuggled	-4752
▁Ruby	-4753
▁ble	-4754
▁marriage	-4755
▁quietly	-4756
gie	-4757
To	-4758
▁warning	-4759
▁jazz	-4760
▁breathe	-4761
reci	-4762
▁elephants	-4763
▁Tu	-4764
▁sizes	-4765
Bob	-4766
▁dried	-4767
▁fallen	-4768
▁landscape	-4769
ories	-4770
▁sprink	-4771
▁neighbour	-4772
▁mice	-4773
▁appreci	-4774
▁Tuesday	-4775
▁–	-4776
▁eagerly	-4777
▁sailing	-4778
▁Good	-4779
▁paused	-4780
ips	-4781
▁counter	-4782
And	-4783
▁worth	-4784
looking	-4785
▁Liz	-4786
▁First	-4787
▁oxygen	-4788
▁release	-4789
▁shined	-4790
pted	-4791
▁reaches	-4792
▁balan	-4793
▁oh	-4794
isses	-4795
▁kisses	-4796
▁style	-4797
▁bricks	-4798
▁glo	-4799
▁plays	-4800
▁ideas	-4801
sed	-4802
▁inst	-4803
▁Ste	-4804
▁wob	-4805
▁fireworks	-4806
Will	-4807
▁Kat	-4808
▁Everything	-4809
iggly	-4810
ucked	-4811
▁seeing	-4812
▁flap	-4813
▁accepted	-4814
▁blink	-4815
mm	-4816
▁tremb	-4817
▁muddy	-4818
▁memory	-4819
▁married	-4820
▁tomatoes	-4821
These	-4822
▁exit	-4823
ops	-4824
▁wagging	-4825
▁fash	-4826
▁Jul	-4827
▁wandered	-4828
unately	-4829
ipping	-4830
right	-4831
▁gloves	-4832
▁Each	-4833
▁captain	-4834
▁pillows	-4835
▁receive	-4836
▁resp	-4837
raged	-4838
▁during	-4839
Not	-4840
etch	-4841
▁web	-4842
▁petals	-4843
▁watered	-4844
Because	-4845
ived	-4846
▁Rosie	-4847
▁manage	-4848
▁brings	-4849
▁pinched	-4850
▁cakes	-4851
▁vanish	-4852
▁fashion	-4853
▁printer	-4854
▁destroyed	-4855
▁Ab	-4856
▁treasures	-4857
▁allow	-4858
▁Clara	-4859
ups	-4860
▁hadn	-4861
▁worse	-4862
▁vel	-4863
▁hits	-4864
▁bur	-4865
xu	-4866
do	-4867
▁velvet	-4868
▁appear	-4869
▁disagree	-4870
▁catching	-4871
▁scattered	-4872
▁memories	-4873
▁sorts	-4874
▁hers	-4875
▁scolded	-4876
▁pears	-4877
▁signs	-4878
▁oranges	-4879
▁bones	-4880
▁rang	-4881
▁sits	-4882
▁seats	-4883
▁snapped	-4884
▁Uncle	-4885
uxu	-4886
▁gazed	-4887
▁raised	-4888
▁Spark	-4889
▁Wiggly	-4890
▁Pr	-4891
▁si	-4892
▁God	-4893
▁zipped	-4894
▁pies	-4895
▁prints	-4896
▁shot	-4897
▁sliding	-4898
▁fro	-4899
▁easier	-4900
ssible	-4901
▁skills	-4902
urprise	-4903
▁climbs	-4904
▁twirled	-4905
▁blankets	-4906
▁forgotten	-4907
ester	-4908
▁baked	-4909
esterday	-4910
▁difference	-4911
▁luxu	-4912
orted	-4913
▁golden	-4914
ccer	-4915
Yum	-4916
ising	-4917
▁kitty	-4918
▁cutting	-4919
▁season	-4920
▁crow	-4921
▁nowhere	-4922
▁Wally	-4923
▁soccer	-4924
▁dared	-4925
ah	-4926
▁bites	-4927
▁lung	-4928
▁celebrated	-4929
choo	-4930
chie	-4931
▁straight	-4932
▁unlocked	-4933
sters	-4934
▁Me	-4935
▁An	-4936
▁sorting	-4937
▁bleed	-4938
▁collected	-4939
▁Moral	-4940
aped	-4941
ding	-4942
▁welcomed	-4943
▁visited	-4944
▁spoons	-4945
▁Out	-4946
▁ours	-4947
▁stitch	-4948
▁Maggie	-4949
▁jogging	-4950
▁Tuna	-4951
medi	-4952
▁emer	-4953
mediately	-4954
▁isn	-4955
▁tong	-4956
▁trave	-4957
▁winner	-4958
umble	-4959
Surprise	-4960
▁ruin	-4961
▁since	-4962
▁prett	-4963
Ok	-4964
▁attached	-4965
▁King	-4966
▁weeping	-4967
▁marching	-4968
▁luxury	-4969
▁simple	-4970
▁shouldn	-4971
▁guessed	-4972
▁zero	-4973
▁created	-4974
▁stuffed	-4975
▁pets	-4976
▁Smith	-4977
ction	-4978
▁famil	-4979
▁waist	-4980
▁urged	-4981
▁bowed	-4982
▁selling	-4983
▁Gr	-4984
▁Suzy	-4985
▁floating	-4986
▁bye	-4987
▁vict	-4988
▁kingdom	-4989
▁olives	-4990
▁kicking	-4991
▁punished	-4992
sit	-4993
▁Bo	-4994
▁Qu	-4995
▁toes	-4996
▁grant	-4997
▁muscles	-4998
▁jewels	-4999
▁beds	-5000
▁melted	-5001
▁slice	-5002
Goodbye	-5003
▁grin	-5004
▁understanding	-5005
rr	-5006
▁collection	-5007
▁tore	-5008
▁measured	-5009
▁cras	-5010
aker	-5011
▁Both	-5012
▁Slow	-5013
iers	-5014
omeday	-5015
▁trapped	-5016
▁Dr	-5017
▁lined	-5018
▁acted	-5019
fortunately	-5020
▁encouraged	-5021
va	-5022
▁received	-5023
▁waffles	-5024
▁Che	-5025
▁west	-5026
▁meow	-5027
ents	-5028
▁patterns	-5029
▁Din	-5030
▁Boo	-5031
▁brus	-5032
▁mouths	-5033
kins	-5034
▁bang	-5035
ring	-5036
Meow	-5037
▁peaches	-5038
▁breeze	-5039
aded	-5040
une	-5041
▁printed	-5042
▁soldiers	-5043
▁someday	-5044
▁potatoes	-5045
▁pupil	-5046
umes	-5047
▁drinks	-5048
▁result	-5049
▁shed	-5050
▁experience	-5051
▁presents	-5052
▁firef	-5053
▁surround	-5054
▁none	-5055
osed	-5056
▁voices	-5057
▁drinking	-5058
ishing	-5059
▁relaxed	-5060
▁victory	-5061
cus	-5062
▁paints	-5063
▁breaking	-5064
▁hurried	-5065
▁twink	-5066
ission	-5067
▁tongue	-5068
eep	-5069
▁costumes	-5070
▁flat	-5071
▁mentioned	-5072
▁begged	-5073
▁teasing	-5074
▁whistling	-5075
▁fetch	-5076
▁permission	-5077
▁sip	-5078
▁disagreed	-5079
▁These	-5080
▁pearl	-5081
▁six	-5082
▁Toto	-5083
Amy	-5084
akes	-5085
▁stro	-5086
vest	-5087
▁Rocky	-5088
▁esc	-5089
▁appro	-5090
▁skipping	-5091
▁fishing	-5092
▁highest	-5093
▁pra	-5094
▁watches	-5095
▁Chicky	-5096
▁sorted	-5097
▁ringing	-5098
ship	-5099
▁tonight	-5100
▁opin	-5101
▁lets	-5102
icing	-5103
Next	-5104
▁perfectly	-5105
▁shadows	-5106
▁immediately	-5107
▁herbs	-5108
▁warmth	-5109
▁spit	-5110
▁remained	-5111
▁Its	-5112
ther	-5113
walk	-5114
▁Pepper	-5115
irring	-5116
▁sneak	-5117
▁lips	-5118
▁kneeled	-5119
▁Milly	-5120
▁contest	-5121
utter	-5122
▁cartoons	-5123
Mr	-5124
▁sidewalk	-5125
▁colours	-5126
▁Follow	-5127
▁stamps	-5128
▁ago	-5129
▁east	-5130
▁headed	-5131
oved	-5132
",	-5133
▁strang	-5134
Ha	-5135
▁fed	-5136
▁ladyb	-5137
▁supposed	-5138
▁Sky	-5139
▁lick	-5140
▁roots	-5141
▁crunch	-5142
▁Hop	-5143
▁Dino	-5144
▁mixing	-5145
▁works	-5146
▁decorations	-5147
▁known	-5148
▁melting	-5149
▁emergen	-5150
▁rested	-5151
▁lines	-5152
▁lily	-5153
▁instr	-5154
▁laid	-5155
▁cones	-5156
▁succeeded	-5157
▁wiggle	-5158
ety	-5159
sing	-5160
▁shock	-5161
▁setting	-5162
▁Frank	-5163
▁studied	-5164
▁strangers	-5165
▁Zigzag	-5166
Really	-5167
▁twigs	-5168
▁brid	-5169
▁theirs	-5170
▁girls	-5171
boo	-5172
!",	-5173
▁screams	-5174
▁lands	-5175
▁ordered	-5176
▁However	-5177
▁fields	-5178
▁moments	-5179
▁stirring	-5180
▁alright	-5181
▁stealing	-5182
ded	-5183
▁rul	-5184
▁bravely	-5185
avid	-5186
▁mister	-5187
!'	-5188
▁invest	-5189
▁scratched	-5190
▁playtime	-5191
▁ripped	-5192
▁investig	-5193
▁tucked	-5194
▁burning	-5195
▁resting	-5196
ishes	-5197
▁Mo	-5198
▁bridges	-5199
▁text	-5200
▁Am	-5201
▁officer	-5202
please	-5203
▁Steve	-5204
abies	-5205
▁David	-5206
▁settled	-5207
▁achie	-5208
▁matched	-5209
▁Someone	-5210
▁texture	-5211
▁waits	-5212
▁turning	-5213
ored	-5214
▁trembling	-5215
isten	-5216
▁nails	-5217
▁muffins	-5218
▁Unfortunately	-5219
ids	-5220
▁escaped	-5221
▁piles	-5222
▁investigate	-5223
osity	-5224
▁broom	-5225
▁ladybug	-5226
▁sore	-5227
▁Happy	-5228
▁admir	-5229
▁appreciate	-5230
▁Lizzy	-5231
▁threat	-5232
▁babies	-5233
▁silence	-5234
▁sisters	-5235
▁area	-5236
▁emergency	-5237
ides	-5238
▁dads	-5239
▁Slowly	-5240
▁Frog	-5241
▁answers	-5242
▁pupp	-5243
Little	-5244
▁keys	-5245
▁Hope	-5246
▁chewing	-5247
▁slapped	-5248
▁wiz	-5249
▁importance	-5250
▁served	-5251
▁safety	-5252
▁Bug	-5253
izing	-5254
▁Rabbit	-5255
Would	-5256
▁Katie	-5257
▁sparkle	-5258
▁touching	-5259
▁soared	-5260
igail	-5261
▁sings	-5262
▁hen	-5263
allen	-5264
bers	-5265
antly	-5266
▁keeps	-5267
▁amazement	-5268
▁challen	-5269
▁El	-5270
▁twin	-5271
▁hesit	-5272
▁revealed	-5273
anna	-5274
achel	-5275
▁dire	-5276
▁item	-5277
▁soaked	-5278
zing	-5279
▁writ	-5280
▁Abigail	-5281
▁foods	-5282
▁rides	-5283
▁dinosaurs	-5284
▁Rachel	-5285
▁recorded	-5286
▁tickle	-5287
▁inch	-5288
▁wizard	-5289
▁vet	-5290
▁trips	-5291
▁glowed	-5292
▁Something	-5293
▁Mat	-5294
▁Not	-5295
Mmm	-5296
▁hi	-5297
▁beamed	-5298
▁quack	-5299
▁curled	-5300
▁hated	-5301
▁wink	-5302
▁shopping	-5303
▁eats	-5304
▁Beep	-5305
▁praised	-5306
▁wooden	-5307
▁bringing	-5308
▁mittens	-5309
▁studying	-5310
▁guy	-5311
int	-5312
Happy	-5313
▁brushes	-5314
▁Aunt	-5315
▁spaceship	-5316
▁gust	-5317
▁crawling	-5318
▁Joy	-5319
▁ruler	-5320
▁flav	-5321
▁downstairs	-5322
▁Zoe	-5323
▁shooting	-5324
▁Star	-5325
▁tastes	-5326
▁napping	-5327
▁marks	-5328
▁sprinkles	-5329
▁cuddled	-5330
▁dot	-5331
hello	-5332
▁fut	-5333
ales	-5334
aved	-5335
▁future	-5336
▁monsters	-5337
▁collecting	-5338
▁measuring	-5339
'.	-5340
▁families	-5341
Kitty	-5342
▁thrill	-5343
▁oat	-5344
▁approached	-5345
act	-5346
▁crunchy	-5347
▁remem	-5348
▁bleeding	-5349
▁remembers	-5350
▁Ho	-5351
▁beat	-5352
▁nicer	-5353
▁Jess	-5354
ibb	-5355
▁sneaky	-5356
▁disturbed	-5357
▁leader	-5358
▁Beh	-5359
▁scaring	-5360
▁Ray	-5361
▁peel	-5362
▁firemen	-5363
▁Did	-5364
▁neighborhood	-5365
▁grey	-5366
Boo	-5367
▁motion	-5368
▁noon	-5369
▁possible	-5370
▁apologized	-5371
▁Behind	-5372
Or	-5373
▁weighed	-5374
ues	-5375
▁Sad	-5376
▁tickets	-5377
▁naps	-5378
When	-5379
▁loose	-5380
Jo	-5381
▁pride	-5382
▁youth	-5383
▁Squ	-5384
▁swims	-5385
ped	-5386
▁strings	-5387
▁recognized	-5388
▁siren	-5389
▁poking	-5390
fied	-5391
ha	-5392
cious	-5393
She	-5394
elvet	-5395
▁tricked	-5396
▁gained	-5397
▁wonders	-5398
▁crashed	-5399
▁wanting	-5400
▁obe	-5401
▁seesaw	-5402
▁worker	-5403
unnies	-5404
▁Jam	-5405
oming	-5406
▁draws	-5407
▁scooped	-5408
.'	-5409
▁zooming	-5410
▁opinion	-5411
▁Velvet	-5412
▁yelling	-5413
▁prepared	-5414
▁Pippa	-5415
▁grinned	-5416
▁awe	-5417
▁Friend	-5418
▁doggy	-5419
▁poems	-5420
▁acting	-5421
▁Always	-5422
▁happiest	-5423
▁chef	-5424
▁sneaked	-5425
▁respons	-5426
▁eff	-5427
▁Car	-5428
▁bunnies	-5429
▁owned	-5430
▁Je	-5431
▁anytime	-5432
▁struck	-5433
▁pedals	-5434
ena	-5435
▁knelt	-5436
oys	-5437
▁Nan	-5438
▁secrets	-5439
▁pause	-5440
▁decorated	-5441
▁horns	-5442
▁agreement	-5443
▁Robby	-5444
ided	-5445
▁frost	-5446
▁During	-5447
▁tallest	-5448
▁obey	-5449
▁Ju	-5450
▁Chr	-5451
ogo	-5452
▁Stop	-5453
▁By	-5454
Remember	-5455
▁decides	-5456
Have	-5457
▁Jan	-5458
▁behaved	-5459
▁tugged	-5460
▁gran	-5461
▁sides	-5462
▁woof	-5463
lier	-5464
▁slim	-5465
zen	-5466
▁goodnight	-5467
▁keeper	-5468
▁chirped	-5469
▁sparkling	-5470
▁precious	-5471
mother	-5472
ien	-5473
▁repeated	-5474
▁claps	-5475
indy	-5476
affes	-5477
▁contain	-5478
▁snowballs	-5479
rs	-5480
▁ourselves	-5481
▁Stitch	-5482
▁Bree	-5483
allow	-5484
▁giraffes	-5485
▁balancing	-5486
▁kindly	-5487
▁Like	-5488
▁spending	-5489
omas	-5490
▁writes	-5491
ays	-5492
ppers	-5493
▁prop	-5494
▁Bouncy	-5495
▁Ad	-5496
▁hissed	-5497
▁frozen	-5498
▁frosting	-5499
▁effort	-5500
▁Spl	-5501
▁buzzing	-5502
▁struggled	-5503
ud	-5504
Sally	-5505
▁admiring	-5506
▁rele	-5507
▁sweeties	-5508
▁slimy	-5509
▁Gogo	-5510
▁brushed	-5511
▁Birdie	-5512
▁bloomed	-5513
▁polished	-5514
▁Dare	-5515
▁Thomas	-5516
Al	-5517
▁comfy	-5518
▁boo	-5519
▁staying	-5520
▁Green	-5521
▁rubbing	-5522
▁pockets	-5523
▁rocking	-5524
▁thrilled	-5525
▁beside	-5526
▁Ava	-5527
▁comple	-5528
▁eight	-5529
urry	-5530
isdom	-5531
▁machines	-5532
iggy	-5533
▁earlier	-5534
▁seems	-5535
▁yesterday	-5536
▁rust	-5537
▁Julie	-5538
▁Keep	-5539
▁Olly	-5540
▁traveled	-5541
▁folding	-5542
▁boom	-5543
▁cracked	-5544
ities	-5545
▁hugging	-5546
Ah	-5547
▁radishes	-5548
▁loving	-5549
▁opening	-5550
▁circus	-5551
▁curiosity	-5552
▁surrounded	-5553
▁spraying	-5554
▁demanded	-5555
▁paintings	-5556
▁removed	-5557
▁gaze	-5558
oh	-5559
▁honk	-5560
▁pebbles	-5561
▁hardly	-5562
▁zookeeper	-5563
▁catches	-5564
edding	-5565
▁sting	-5566
▁powers	-5567
▁stripes	-5568
▁loaded	-5569
Daddy	-5570
▁pots	-5571
▁splashes	-5572
▁petted	-5573
▁matching	-5574
▁toss	-5575
▁belly	-5576
▁stare	-5577
▁Beth	-5578
▁whatever	-5579
▁apologize	-5580
▁rocked	-5581
▁comforted	-5582
▁Everyday	-5583
▁decision	-5584
▁ribbons	-5585
ern	-5586
Yummy	-5587
▁struggling	-5588
Ch	-5589
▁expected	-5590
▁steep	-5591
▁Jamie	-5592
▁protected	-5593
▁neighbors	-5594
▁chases	-5595
▁smiley	-5596
▁Lou	-5597
▁granted	-5598
▁crumb	-5599
▁Water	-5600
▁purred	-5601
▁diving	-5602
▁Abby	-5603
▁sadness	-5604
▁organizing	-5605
▁eagle	-5606
▁heroes	-5607
▁dipped	-5608
▁Spring	-5609
▁sunlight	-5610
▁lied	-5611
▁pastels	-5612
▁Nina	-5613
▁roads	-5614
▁safer	-5615
▁Because	-5616
▁scru	-5617
▁argued	-5618
Somet	-5619
▁goals	-5620
▁discovery	-5621
▁Sure	-5622
▁peered	-5623
▁villag	-5624
▁deser	-5625
Gra	-5626
▁Splash	-5627
loe	-5628
use	-5629
▁tim	-5630
▁dragons	-5631
▁Mir	-5632
▁Lu	-5633
▁buckets	-5634
▁buildings	-5635
▁parties	-5636
▁beard	-5637
▁Wisdom	-5638
▁wedding	-5639
▁flutter	-5640
▁planets	-5641
▁ann	-5642
▁polishing	-5643
▁fasc	-5644
▁For	-5645
▁released	-5646
▁Watch	-5647
▁crabs	-5648
▁tails	-5649
▁Cla	-5650
▁sausages	-5651
▁argu	-5652
Bird	-5653
▁contro	-5654
▁bottles	-5655
▁wiggled	-5656
▁teased	-5657
▁Zero	-5658
Thanks	-5659
▁arguing	-5660
▁sled	-5661
▁dragged	-5662
▁padd	-5663
▁Chloe	-5664
▁roaring	-5665
▁Josh	-5666
▁clearing	-5667
▁movies	-5668
▁shirts	-5669
▁gathering	-5670
▁airpl	-5671
▁wid	-5672
joyed	-5673
▁Remember	-5674
▁spiders	-5675
▁teaches	-5676
▁limes	-5677
▁overjoyed	-5678
▁actually	-5679
▁Hippy	-5680
▁sighs	-5681
▁continue	-5682
anny	-5683
▁cuddle	-5684
▁soaring	-5685
▁smallest	-5686
...	-5687
▁Ol	-5688
▁Kay	-5689
▁drives	-5690
▁rip	-5691
▁sparkles	-5692
▁situ	-5693
▁cubes	-5694
▁refres	-5695
▁talent	-5696
▁challenge	-5697
▁grandmother	-5698
umm	-5699
▁Moo	-5700
▁pouring	-5701
▁fascin	-5702
▁pretends	-5703
▁Hanna	-5704
▁cuts	-5705
▁bank	-5706
▁quarreling	-5707
▁mane	-5708
▁Being	-5709
▁peppers	-5710
▁shivered	-5711
▁X	-5712
ten	-5713
▁dusty	-5714
ib	-5715
ley	-5716
▁villagers	-5717
▁wondering	-5718
▁stretching	-5719
njoy	-5720
▁weeks	-5721
▁darker	-5722
▁wherever	-5723
jam	-5724
sses	-5725
▁rings	-5726
▁onwards	-5727
▁united	-5728
▁Bop	-5729
Achoo	-5730
John	-5731
▁bead	-5732
▁prettiest	-5733
▁caut	-5734
lowers	-5735
▁realize	-5736
▁company	-5737
▁penguins	-5738
▁Catty	-5739
▁bedtime	-5740
▁completed	-5741
▁Leave	-5742
▁control	-5743
▁knights	-5744
”.	-5745
▁flags	-5746
▁3-	-5747
▁playroom	-5748
▁Prin	-5749
▁actions	-5750
▁learns	-5751
▁gotten	-5752
▁patience	-5753
inda	-5754
▁shrug	-5755
▁Fish	-5756
▁Two	-5757
▁kites	-5758
▁Lena	-5759
▁responsible	-5760
▁fears	-5761
▁destination	-5762
▁reply	-5763
▁wires	-5764
▁dam	-5765
▁wrist	-5766
▁Anne	-5767
▁Chew	-5768
aws	-5769
▁Earth	-5770
▁packing	-5771
▁fault	-5772
▁applauded	-5773
▁mountains	-5774
▁ma	-5775
▁scrubbed	-5776
▁crept	-5777
Uh	-5778
▁satis	-5779
Fl	-5780
▁Cra	-5781
Mama	-5782
▁Adam	-5783
▁phot	-5784
▁third	-5785
▁pencils	-5786
▁wins	-5787
▁sticking	-5788
▁baker	-5789
▁visiting	-5790
▁wound	-5791
▁uses	-5792
▁peas	-5793
▁reminder	-5794
ashed	-5795
▁Put	-5796
▁joking	-5797
▁awake	-5798
▁instruct	-5799
▁healed	-5800
▁staring	-5801
▁Blink	-5802
▁hitting	-5803
▁Friends	-5804
▁screaming	-5805
▁begin	-5806
▁Luck	-5807
▁Brownie	-5808
icorn	-5809
▁Mad	-5810
▁helmets	-5811
enty	-5812
ler	-5813
▁unicorn	-5814
seek	-5815
▁Hannah	-5816
▁towels	-5817
▁Luckily	-5818
Mum	-5819
▁chips	-5820
ica	-5821
▁creation	-5822
▁wasted	-5823
Sometimes	-5824
bie	-5825
Just	-5826
▁masks	-5827
▁forgi	-5828
▁items	-5829
▁Sun	-5830
▁firefight	-5831
▁outdo	-5832
▁lollipops	-5833
▁Mira	-5834
▁heav	-5835
Watch	-5836
▁guns	-5837
▁died	-5838
▁seas	-5839
▁glitter	-5840
▁Princess	-5841
▁Mouse	-5842
▁Mon	-5843
uddles	-5844
▁Claire	-5845
▁arrive	-5846
Silly	-5847
▁stole	-5848
▁weren	-5849
▁scales	-5850
die	-5851
▁accom	-5852
▁perched	-5853
▁Love	-5854
▁logs	-5855
▁achieve	-5856
▁practicing	-5857
ining	-5858
▁whose	-5859
▁pumpkins	-5860
▁instructions	-5861
▁swoop	-5862
▁batteries	-5863
▁agrees	-5864
▁candies	-5865
▁project	-5866
▁snakes	-5867
▁chirping	-5868
▁Jilly	-5869
▁shelves	-5870
▁Hoot	-5871
▁protecting	-5872
▁exact	-5873
▁parked	-5874
Stay	-5875
▁patiently	-5876
▁activ	-5877
▁Ally	-5878
▁videos	-5879
▁shoulders	-5880
▁blows	-5881
▁promises	-5882
▁dent	-5883
go	-5884
▁Matt	-5885
ners	-5886
uest	-5887
jamas	-5888
▁airplane	-5889
▁examined	-5890
▁Foxy	-5891
▁roses	-5892
▁accompl	-5893
hee	-5894
▁tasks	-5895
▁Squirrel	-5896
▁Susan	-5897
▁beads	-5898
▁bowls	-5899
▁crumbs	-5900
zes	-5901
▁Dot	-5902
▁Whist	-5903
▁listens	-5904
Fluffy	-5905
▁bunch	-5906
▁dolphins	-5907
Today	-5908
▁cough	-5909
▁guest	-5910
Ex	-5911
▁Cuddles	-5912
cakes	-5913
▁requested	-5914
▁remote	-5915
▁improved	-5916
anta	-5917
▁Bye	-5918
▁reaching	-5919
▁brand	-5920
▁alien	-5921
irm	-5922
▁copy	-5923
▁Quick	-5924
▁cheering	-5925
Mummy	-5926
▁Jeff	-5927
▁photos	-5928
▁cans	-5929
▁bene	-5930
▁timer	-5931
▁replaced	-5932
▁workers	-5933
▁stern	-5934
▁Enjoy	-5935
▁adult	-5936
Bad	-5937
aster	-5938
▁neither	-5939
▁misses	-5940
▁puppet	-5941
▁passing	-5942
▁curtains	-5943
▁confl	-5944
▁twirl	-5945
▁rainbows	-5946
▁rubs	-5947
▁Luke	-5948
▁rolls	-5949
uctantly	-5950
▁Jessie	-5951
▁patted	-5952
▁conflict	-5953
ilo	-5954
▁pajamas	-5955
▁outdoors	-5956
esome	-5957
dies	-5958
▁complaining	-5959
▁Dizzy	-5960
▁closes	-5961
▁beneath	-5962
▁lap	-5963
▁drums	-5964
Run	-5965
▁tune	-5966
▁Santa	-5967
Ro	-5968
▁filling	-5969
angled	-5970
▁Sorry	-5971
▁refuse	-5972
▁sweat	-5973
▁faced	-5974
▁seven	-5975
▁balanced	-5976
▁1	-5977
▁rescued	-5978
bl	-5979
neath	-5980
▁quacked	-5981
▁Days	-5982
▁Our	-5983
▁Yes	-5984
▁awesome	-5985
▁mission	-5986
▁guys	-5987
▁cautious	-5988
▁vent	-5989
▁cause	-5990
▁observed	-5991
Cat	-5992
▁introduc	-5993
▁pastries	-5994
nie	-5995
▁doctors	-5996
▁exactly	-5997
▁rule	-5998
▁Henny	-5999
▁becoming	-6000
▁mes	-6001
▁policeman	-6002
lay	-6003
▁rockets	-6004
uly	-6005
you	-6006
▁fairies	-6007
▁pout	-6008
▁Linda	-6009
▁Jac	-6010
▁insist	-6011
▁blooming	-6012
▁tractor	-6013
Tommy	-6014
▁farther	-6015
avi	-6016
Oops	-6017
▁desert	-6018
▁included	-6019
▁remembering	-6020
▁curly	-6021
▁teamwork	-6022
zie	-6023
Great	-6024
▁fascinated	-6025
▁slam	-6026
▁wobbled	-6027
▁truly	-6028
▁helpers	-6029
Fine	-6030
▁sights	-6031
▁paddle	-6032
▁firm	-6033
▁stumble	-6034
▁caused	-6035
▁prayer	-6036
▁Jenna	-6037
Then	-6038
▁spong	-6039
▁recording	-6040
kelly	-6041
eah	-6042
▁traded	-6043
▁starfish	-6044
▁Sc	-6045
▁supplies	-6046
▁thro	-6047
▁pointy	-6048
▁inviting	-6049
▁situation	-6050
gers	-6051
▁everyday	-6052
▁neighbourhood	-6053
▁ornaments	-6054
▁Ant	-6055
▁Whistle	-6056
inkle	-6057
▁valued	-6058
▁adding	-6059
ais	-6060
▁reluctantly	-6061
▁dots	-6062
▁Rover	-6063
▁stays	-6064
▁bare	-6065
▁tables	-6066
▁prettier	-6067
▁Mix	-6068
▁Skelly	-6069
▁Jon	-6070
▁Jacob	-6071
▁snowmen	-6072
▁steady	-6073
▁minerals	-6074
▁Gina	-6075
araway	-6076
▁Milo	-6077
▁thorn	-6078
▁Get	-6079
▁ast	-6080
▁Welcome	-6081
▁faraway	-6082
▁glasses	-6083
▁Duck	-6084
▁Po	-6085
▁swooped	-6086
▁Betsy	-6087
▁unf	-6088
▁forks	-6089
▁usual	-6090
▁usually	-6091
▁dar	-6092
▁winked	-6093
▁sneezing	-6094
▁solut	-6095
▁Dara	-6096
▁loading	-6097
▁sponge	-6098
▁insects	-6099
▁Dee	-6100
ody	-6101
▁Stay	-6102
▁pans	-6103
▁sobbed	-6104
▁growling	-6105
sm	-6106
▁throat	-6107
▁noses	-6108
▁Want	-6109
▁Kids	-6110
▁scarves	-6111
▁confident	-6112
▁yourselves	-6113
agull	-6114
arter	-6115
▁Suzie	-6116
▁homework	-6117
▁superheroes	-6118
..."	-6119
▁Ash	-6120
▁smarter	-6121
▁windy	-6122
▁librarian	-6123
Timmy	-6124
▁gems	-6125
▁Fu	-6126
ora	-6127
▁underneath	-6128
▁kicks	-6129
▁knowled	-6130
▁itchy	-6131
▁jackets	-6132
▁knowledge	-6133
▁Ziggy	-6134
▁surface	-6135
▁untie	-6136
▁comm	-6137
▁Quack	-6138
▁princesses	-6139
Time	-6140
ido	-6141
Yeah	-6142
coon	-6143
▁Paws	-6144
▁squares	-6145
▁giggling	-6146
▁warnings	-6147
iar	-6148
Those	-6149
▁reads	-6150
vin	-6151
▁choo	-6152
▁younger	-6153
▁Dodo	-6154
▁clowns	-6155
son	-6156
▁ropes	-6157
▁Wink	-6158
Our	-6159
▁Sadly	-6160
Hold	-6161
▁biting	-6162
Le	-6163
▁crowd	-6164
pite	-6165
▁seagull	-6166
▁paddled	-6167
▁wears	-6168
▁delivered	-6169
▁buzzed	-6170
▁onions	-6171
▁complained	-6172
eed	-6173
▁bumpy	-6174
▁stem	-6175
Ew	-6176
▁piggy	-6177
▁Skip	-6178
▁Jones	-6179
▁direction	-6180
ouch	-6181
▁dived	-6182
▁startled	-6183
▁tangled	-6184
▁leaning	-6185
bbie	-6186
pr	-6187
Roar	-6188
▁Fido	-6189
▁badge	-6190
▁Yesterday	-6191
▁Nana	-6192
▁Jessica	-6193
Fo	-6194
▁deal	-6195
▁unp	-6196
though	-6197
▁Buggy	-6198
▁vowed	-6199
▁napkins	-6200
anes	-6201
▁risk	-6202
▁tickled	-6203
▁covers	-6204
▁pec	-6205
Shh	-6206
▁Cara	-6207
▁yells	-6208
▁satisfied	-6209
▁Near	-6210
▁knocks	-6211
▁refreshed	-6212
cuse	-6213
tuce	-6214
▁cous	-6215
▁Cathy	-6216
▁arrows	-6217
▁wipes	-6218
▁speaking	-6219
▁guessing	-6220
▁lettuce	-6221
▁ripe	-6222
▁Cindy	-6223
▁hides	-6224
▁choices	-6225
▁Lion	-6226
▁signed	-6227
▁slower	-6228
▁seeker	-6229
▁introduced	-6230
irl	-6231
▁Kayla	-6232
▁singer	-6233
▁creating	-6234
▁Tara	-6235
▁cent	-6236
▁froze	-6237
uggles	-6238
▁joked	-6239
▁squeal	-6240
▁Julia	-6241
▁toaster	-6242
▁explorers	-6243
▁Mel	-6244
▁avo	-6245
anging	-6246
▁praying	-6247
▁written	-6248
▁discovering	-6249
▁provided	-6250
▁refle	-6251
Excuse	-6252
Jack	-6253
▁mushrooms	-6254
▁knees	-6255
▁paying	-6256
fit	-6257
ences	-6258
▁hider	-6259
▁wandering	-6260
▁Rolly	-6261
▁images	-6262
▁stung	-6263
▁barely	-6264
▁magnets	-6265
▁behaving	-6266
▁tipto	-6267
?",	-6268
▁marked	-6269
▁Snuggles	-6270
brush	-6271
Dog	-6272
▁Grumpy	-6273
▁restored	-6274
▁leading	-6275
lled	-6276
▁chuck	-6277
▁Oliver	-6278
ados	-6279
▁nine	-6280
▁greet	-6281
▁gears	-6282
▁bravery	-6283
▁competition	-6284
▁outfit	-6285
oline	-6286
▁wishing	-6287
▁properly	-6288
▁ventured	-6289
aa	-6290
tle	-6291
▁chat	-6292
▁dances	-6293
▁muscle	-6294
▁pens	-6295
▁Mikey	-6296
▁salty	-6297
amb	-6298
▁ranger	-6299
▁deserve	-6300
▁however	-6301
rrr	-6302
sequ	-6303
▁matters	-6304
▁burst	-6305
▁darkness	-6306
▁rainy	-6307
▁cobwebs	-6308
▁ruining	-6309
▁bak	-6310
▁chefs	-6311
▁consequ	-6312
▁blocking	-6313
usted	-6314
itely	-6315
▁scur	-6316
▁vines	-6317
▁Copper	-6318
▁fab	-6319
abel	-6320
▁fabric	-6321
▁entire	-6322
▁basement	-6323
▁least	-6324
▁performed	-6325
▁Laser	-6326
▁scratches	-6327
▁heavier	-6328
Cl	-6329
▁mints	-6330
▁avocados	-6331
▁twirling	-6332
fl	-6333
rink	-6334
▁Jay	-6335
▁losing	-6336
▁scurried	-6337
▁sunflowers	-6338
▁rainco	-6339
▁swords	-6340
▁click	-6341
▁Nothing	-6342
▁jobs	-6343
▁silent	-6344
Grandma	-6345
▁flames	-6346
▁necklaces	-6347
▁Snap	-6348
▁relief	-6349
▁snat	-6350
▁sewed	-6351
▁rotting	-6352
▁tricky	-6353
▁Without	-6354
▁lighter	-6355
▁bows	-6356
Listen	-6357
▁Pup	-6358
▁exha	-6359
▁solution	-6360
▁consequences	-6361
len	-6362
Follow	-6363
ho	-6364
▁stain	-6365
▁tires	-6366
▁unpacked	-6367
rance	-6368
▁Ex	-6369
▁Larry	-6370
▁partic	-6371
▁races	-6372
▁pins	-6373
▁bumps	-6374
▁wraps	-6375
▁Sophia	-6376
▁wow	-6377
aisies	-6378
▁backed	-6379
▁decorating	-6380
cher	-6381
▁dentist	-6382
▁purr	-6383
▁needles	-6384
▁cautiously	-6385
▁lifting	-6386
izzie	-6387
▁Tree	-6388
▁Those	-6389
▁accomplish	-6390
▁daisies	-6391
▁triangles	-6392
ept	-6393
▁annoy	-6394
▁hesitated	-6395
▁growls	-6396
▁Twinkle	-6397
▁crackers	-6398
▁Bark	-6399
▁stomped	-6400
▁cott	-6401
▁grabbing	-6402
▁bodies	-6403
▁figured	-6404
▁mater	-6405
▁buying	-6406
▁material	-6407
oke	-6408
▁Pam	-6409
▁swans	-6410
▁ties	-6411
▁gri	-6412
vers	-6413
▁grows	-6414
▁Bloom	-6415
▁Goodbye	-6416
▁sweets	-6417
▁cheeks	-6418
▁flavor	-6419
▁owners	-6420
▁Lizzie	-6421
▁suffering	-6422
vroom	-6423
▁fact	-6424
▁groups	-6425
bly	-6426
▁forehead	-6427
▁lungs	-6428
▁repa	-6429
▁Trust	-6430
▁bakery	-6431
▁interested	-6432
▁Rain	-6433
▁freed	-6434
itches	-6435
▁Ball	-6436
▁chuckled	-6437
▁conn	-6438
▁swept	-6439
?'	-6440
▁thud	-6441
▁exhausted	-6442
▁tapped	-6443
▁twinkling	-6444
▁nect	-6445
▁Q	-6446
elle	-6447
▁nectar	-6448
▁feast	-6449
▁Christ	-6450
▁darling	-6451
indr	-6452
▁Try	-6453
▁worries	-6454
▁uns	-6455
▁fuzzy	-6456
▁tunnels	-6457
▁Peanut	-6458
▁reason	-6459
▁repaired	-6460
▁June	-6461
▁Up	-6462
▁activities	-6463
▁Listen	-6464
▁pecked	-6465
▁entrance	-6466
▁Els	-6467
▁meals	-6468
▁raindr	-6469
▁completely	-6470
▁particular	-6471
▁mailed	-6472
ctions	-6473
▁Frost	-6474
▁nests	-6475
▁cuddly	-6476
▁waiter	-6477
▁sense	-6478
▁colored	-6479
▁leap	-6480
band	-6481
step	-6482
▁plenty	-6483
▁peeking	-6484
no	-6485
▁slammed	-6486
▁Birthday	-6487
▁players	-6488
▁budge	-6489
▁month	-6490
▁scra	-6491
▁forgets	-6492
▁den	-6493
▁Frosty	-6494
▁Robert	-6495
▁handful	-6496
▁mer	-6497
▁Rollie	-6498
▁genie	-6499
▁stool	-6500
iggie	-6501
▁talks	-6502
ossible	-6503
▁feeding	-6504
▁passports	-6505
▁films	-6506
▁baths	-6507
▁impossible	-6508
▁Stella	-6509
▁Nick	-6510
▁determination	-6511
▁‘	-6512
▁printing	-6513
boat	-6514
▁designed	-6515
▁Other	-6516
▁buses	-6517
▁opp	-6518
ueen	-6519
▁bars	-6520
lephant	-6521
▁suitcase	-6522
▁nibb	-6523
▁counts	-6524
▁stolen	-6525
▁spikes	-6526
▁spreading	-6527
Lila	-6528
▁steer	-6529
▁wiping	-6530
▁lamb	-6531
▁honked	-6532
nies	-6533
▁cowb	-6534
ky	-6535
▁separated	-6536
blings	-6537
▁siblings	-6538
▁hops	-6539
Whee	-6540
▁Lau	-6541
▁chop	-6542
▁fires	-6543
▁sewing	-6544
▁fever	-6545
▁twinkle	-6546
▁ty	-6547
▁camping	-6548
▁lower	-6549
▁changing	-6550
yes	-6551
retch	-6552
▁Missy	-6553
▁behavi	-6554
Rex	-6555
mas	-6556
▁liqu	-6557
▁celebration	-6558
▁squealed	-6559
▁dollhouse	-6560
▁backward	-6561
▁age	-6562
▁Maya	-6563
▁snatched	-6564
but	-6565
▁Abbie	-6566
▁Biggie	-6567
Bobo	-6568
▁cash	-6569
▁twice	-6570
▁Mic	-6571
lee	-6572
▁sway	-6573
itched	-6574
uzz	-6575
▁celebrating	-6576
▁ache	-6577
▁shrinking	-6578
weed	-6579
▁kings	-6580
▁Hold	-6581
rious	-6582
▁shops	-6583
▁kittens	-6584
▁Robbie	-6585
cope	-6586
cky	-6587
▁hus	-6588
▁touches	-6589
airy	-6590
▁Lia	-6591
▁pancakes	-6592
▁avoid	-6593
▁spat	-6594
hog	-6595
rig	-6596
▁Woof	-6597
▁paths	-6598
hile	-6599
ives	-6600
▁calmed	-6601
▁rotten	-6602
▁seaweed	-6603
▁dropping	-6604
iles	-6605
▁stroked	-6606
▁twisting	-6607
▁untied	-6608
llen	-6609
▁playhouse	-6610
▁puppies	-6611
▁students	-6612
cl	-6613
hi	-6614
▁Ry	-6615
▁Izzy	-6616
▁astron	-6617
▁screws	-6618
▁somebody	-6619
▁Chris	-6620
igning	-6621
▁liquid	-6622
▁wakes	-6623
▁squish	-6624
▁Laura	-6625
▁Robo	-6626
▁astronaut	-6627
▁bracelets	-6628
aren	-6629
immer	-6630
▁thrown	-6631
▁loops	-6632
▁wrapping	-6633
▁plain	-6634
▁tramp	-6635
▁planning	-6636
▁aimed	-6637
▁skunk	-6638
▁Fuzzy	-6639
▁pennies	-6640
▁shoo	-6641
▁lifts	-6642
▁dancers	-6643
▁sparks	-6644
▁firefly	-6645
pen	-6646
▁Christmas	-6647
▁poster	-6648
endy	-6649
▁cust	-6650
▁objects	-6651
▁rewarded	-6652
▁directions	-6653
ingo	-6654
using	-6655
▁husband	-6656
▁reflection	-6657
river	-6658
▁Doctor	-6659
Take	-6660
▁Rich	-6661
▁Queen	-6662
▁clues	-6663
uppy	-6664
▁Woo	-6665
▁Sparky	-6666
▁leads	-6667
▁increased	-6668
▁blocked	-6669
▁rising	-6670
▁dod	-6671
▁cousin	-6672
▁Elephant	-6673
▁forgetting	-6674
rigued	-6675
▁custom	-6676
▁Rudy	-6677
▁beginning	-6678
▁trampoline	-6679
▁pouted	-6680
▁storekeeper	-6681
artha	-6682
▁zebras	-6683
▁aff	-6684
▁Ryan	-6685
▁hedgehog	-6686
▁Ang	-6687
▁borrowed	-6688
▁Karen	-6689
▁snowfl	-6690
▁countryside	-6691
ude	-6692
▁mesmer	-6693
▁vehicles	-6694
▁Only	-6695
▁instrum	-6696
▁Moon	-6697
▁frowning	-6698
Some	-6699
ivity	-6700
Buddy	-6701
▁marker	-6702
yond	-6703
▁Fire	-6704
▁beyond	-6705
▁presses	-6706
▁fart	-6707
▁damage	-6708
ammy	-6709
ivery	-6710
▁Along	-6711
iece	-6712
▁Farm	-6713
jo	-6714
Beep	-6715
▁health	-6716
▁slips	-6717
▁swimsuit	-6718
▁whispers	-6719
▁Emmy	-6720
▁warmer	-6721
▁flapping	-6722
▁Martha	-6723
▁tiptoed	-6724
▁regretted	-6725
▁Sim	-6726
itted	-6727
▁laying	-6728
ades	-6729
▁yelp	-6730
▁glued	-6731
▁rains	-6732
▁everybody	-6733
▁Stretch	-6734
▁Mabel	-6735
▁creations	-6736
▁hearing	-6737
▁colder	-6738
iversity	-6739
nk	-6740
ael	-6741
▁shaped	-6742
▁fins	-6743
▁streets	-6744
▁rusty	-6745
▁cushions	-6746
▁Sw	-6747
▁farthest	-6748
▁creativity	-6749
▁Ma	-6750
▁sale	-6751
ans	-6752
▁Toot	-6753
iam	-6754
▁strongest	-6755
ibbit	-6756
▁fits	-6757
▁bells	-6758
▁dollars	-6759
▁Ron	-6760
▁earn	-6761
angle	-6762
▁lending	-6763
▁Beaky	-6764
eese	-6765
▁cashier	-6766
▁including	-6767
▁sank	-6768
▁sniffs	-6769
▁raincoat	-6770
▁stopping	-6771
▁trembled	-6772
Always	-6773
▁source	-6774
iti	-6775
▁indeed	-6776
▁wobbly	-6777
ters	-6778
▁Farmer	-6779
▁guests	-6780
▁single	-6781
▁recommended	-6782
▁Granny	-6783
▁spells	-6784
▁Tia	-6785
▁accomplishment	-6786
▁belts	-6787
▁ends	-6788
▁Snowman	-6789
▁Afterwards	-6790
▁surprising	-6791
▁hopeful	-6792
▁Take	-6793
eal	-6794
▁seasons	-6795
▁plans	-6796
Jump	-6797
ichael	-6798
▁encourag	-6799
▁supported	-6800
stick	-6801
▁artist	-6802
▁suffered	-6803
illed	-6804
▁performance	-6805
eet	-6806
▁slowed	-6807
▁gross	-6808
▁flavors	-6809
iding	-6810
ertain	-6811
▁spins	-6812
cho	-6813
▁Simon	-6814
▁labels	-6815
▁delivery	-6816
▁raindrops	-6817
arac	-6818
uing	-6819
▁raccoon	-6820
▁forgiving	-6821
obody	-6822
▁pours	-6823
ility	-6824
▁stands	-6825
▁turtles	-6826
▁vanilla	-6827
▁Bones	-6828
▁Michael	-6829
uess	-6830
▁beam	-6831
▁recipe	-6832
▁tying	-6833
▁Spirit	-6834
▁geese	-6835
▁drawn	-6836
▁robber	-6837
▁willing	-6838
▁wept	-6839
▁Kit	-6840
▁charac	-6841
▁pops	-6842
▁corners	-6843
elia	-6844
▁Holly	-6845
▁queens	-6846
▁die	-6847
▁grip	-6848
▁Barky	-6849
▁sailboat	-6850
▁drivers	-6851
▁moo	-6852
itude	-6853
▁hallway	-6854
▁imagining	-6855
▁seconds	-6856
Vroom	-6857
▁Ana	-6858
▁Jump	-6859
▁preparing	-6860
▁widened	-6861
Mine	-6862
▁coop	-6863
▁grocer	-6864
▁Patch	-6865
▁talented	-6866
▁Janie	-6867
ummies	-6868
▁sailors	-6869
▁Titi	-6870
Tr	-6871
lling	-6872
▁aside	-6873
▁softer	-6874
▁watering	-6875
▁knots	-6876
▁sending	-6877
▁tipped	-6878
▁unsure	-6879
▁horiz	-6880
▁treehouse	-6881
▁Ph	-6882
▁notes	-6883
▁echo	-6884
▁Exc	-6885
igers	-6886
▁achieved	-6887
▁Crab	-6888
▁horizon	-6889
▁squeak	-6890
▁delivering	-6891
▁Play	-6892
▁hotter	-6893
▁pleasure	-6894
▁Zee	-6895
▁pupils	-6896
▁burrow	-6897
▁angels	-6898
▁curiously	-6899
▁yum	-6900
▁blinking	-6901
▁det	-6902
▁tweet	-6903
▁symbols	-6904
wk	-6905
▁passen	-6906
▁tummies	-6907
▁tiss	-6908
▁figures	-6909
▁pigeons	-6910
umbling	-6911
▁bandages	-6912
▁Turt	-6913
▁coup	-6914
oey	-6915
▁Sl	-6916
▁robots	-6917
▁tossed	-6918
▁hour	-6919
▁backwards	-6920
▁roars	-6921
alph	-6922
▁merma	-6923
▁rather	-6924
atur	-6925
▁Tess	-6926
ighting	-6927
▁groceries	-6928
▁zipping	-6929
▁Zoey	-6930
▁unw	-6931
▁Excited	-6932
▁among	-6933
▁blown	-6934
▁icing	-6935
Put	-6936
▁Thanks	-6937
!”.	-6938
▁rumble	-6939
▁afterwards	-6940
ipper	-6941
▁screwd	-6942
▁glee	-6943
▁sped	-6944
ushing	-6945
▁prove	-6946
▁dip	-6947
▁overcome	-6948
Quack	-6949
print	-6950
▁surfboard	-6951
▁shovels	-6952
▁slices	-6953
▁Jackie	-6954
▁merry	-6955
▁mate	-6956
▁Ralph	-6957
▁wobble	-6958
▁Abi	-6959
▁Wendy	-6960
▁heading	-6961
▁disturbing	-6962
▁Wo	-6963
▁swall	-6964
▁reversed	-6965
▁firefighters	-6966
▁swallowed	-6967
▁chip	-6968
▁scored	-6969
▁flipped	-6970
eds	-6971
▁squeezing	-6972
▁waking	-6973
▁Marie	-6974
▁intrigued	-6975
▁maker	-6976
awn	-6977
▁puff	-6978
usty	-6979
▁hawk	-6980
▁encouraging	-6981
▁aud	-6982
▁Lenny	-6983
Very	-6984
osen	-6985
onies	-6986
▁Willy	-6987
▁chosen	-6988
▁Davey	-6989
▁couple	-6990
the	-6991
▁designs	-6992
▁Des	-6993
▁slipping	-6994
▁screwdriver	-6995
▁squishy	-6996
Like	-6997
▁center	-6998
▁gardener	-6999
▁rivers	-7000
▁markers	-7001
▁respond	-7002
iley	-7003
▁jars	-7004
▁tigers	-7005
pecting	-7006
▁frowns	-7007
bird	-7008
▁fluttered	-7009
▁firefighter	-7010
▁suits	-7011
▁secure	-7012
▁sprinkled	-7013
▁creamy	-7014
▁bru	-7015
ashes	-7016
▁sharks	-7017
▁ignoring	-7018
▁giggles	-7019
▁Sleep	-7020
▁Tweetie	-7021
Ribbit	-7022
▁tissue	-7023
▁tighter	-7024
▁firmly	-7025
Bl	-7026
▁Jacky	-7027
▁Nobody	-7028
▁Roo	-7029
▁shown	-7030
▁familiar	-7031
fly	-7032
▁thorns	-7033
▁Time	-7034
▁drawers	-7035
▁def	-7036
child	-7037
▁Judy	-7038
▁express	-7039
ments	-7040
▁daring	-7041
▁audience	-7042
▁crossing	-7043
▁Since	-7044
▁cloudy	-7045
▁coloured	-7046
▁performing	-7047
▁ais	-7048
▁cor	-7049
▁Turtle	-7050
rat	-7051
▁pedaled	-7052
▁mixture	-7053
▁gracefully	-7054
ggy	-7055
▁2	-7056
▁haircuts	-7057
Fr	-7058
▁yielded	-7059
▁ponies	-7060
▁disob	-7061
▁crowns	-7062
▁bits	-7063
Fin	-7064
Get	-7065
▁todd	-7066
▁hangers	-7067
▁nervously	-7068
bbled	-7069
▁Chewy	-7070
▁Kip	-7071
▁Todd	-7072
▁pays	-7073
▁peck	-7074
▁stroke	-7075
▁ev	-7076
fall	-7077
▁napped	-7078
▁respected	-7079
aven	-7080
▁minded	-7081
▁Wise	-7082
▁Momma	-7083
ddie	-7084
ably	-7085
▁Ali	-7086
▁tested	-7087
Boys	-7088
ading	-7089
parent	-7090
▁Maddie	-7091
arrow	-7092
▁University	-7093
▁beeh	-7094
▁surfing	-7095
▁neighbours	-7096
▁Bally	-7097
▁Yet	-7098
First	-7099
vered	-7100
▁shady	-7101
iona	-7102
▁darl	-7103
▁darlings	-7104
▁magician	-7105
▁enthusiasm	-7106
▁wisely	-7107
▁Jojo	-7108
▁sails	-7109
▁stitches	-7110
▁Yog	-7111
▁weekend	-7112
▁thoughts	-7113
▁reminds	-7114
fted	-7115
▁Mina	-7116
▁temper	-7117
oring	-7118
antha	-7119
ilted	-7120
▁fleas	-7121
▁spits	-7122
▁surroundings	-7123
▁teams	-7124
▁fills	-7125
▁lessons	-7126
een	-7127
▁flip	-7128
Dear	-7129
▁melons	-7130
▁paintbrush	-7131
▁Puppy	-7132
▁mermaid	-7133
Bang	-7134
▁Outside	-7135
▁Although	-7136
▁Win	-7137
▁grandchild	-7138
▁elbow	-7139
▁explo	-7140
▁hoops	-7141
▁Cu	-7142
▁Soft	-7143
▁sports	-7144
▁lies	-7145
▁Fighting	-7146
rac	-7147
▁Fiona	-7148
▁panicked	-7149
▁amount	-7150
▁cleaner	-7151
cused	-7152
▁longest	-7153
▁Samantha	-7154
▁scooters	-7155
▁lent	-7156
▁Sadie	-7157
ita	-7158
▁sill	-7159
immering	-7160
▁beloved	-7161
▁beehive	-7162
Alright	-7163
lle	-7164
ongrat	-7165
oni	-7166
▁Mixy	-7167
ongratul	-7168
▁oysters	-7169
▁grandparent	-7170
Guess	-7171
▁Mother	-7172
▁forgiven	-7173
▁Sparkle	-7174
▁magazines	-7175
▁arr	-7176
▁elf	-7177
ces	-7178
▁repeating	-7179
▁discussed	-7180
▁Dani	-7181
▁sweetest	-7182
▁wadd	-7183
▁Everybody	-7184
▁reass	-7185
Keep	-7186
▁nightmares	-7187
▁tubes	-7188
▁spoonful	-7189
▁understands	-7190
▁Pen	-7191
▁nood	-7192
▁bathing	-7193
asty	-7194
▁sweep	-7195
▁manners	-7196
crow	-7197
▁nur	-7198
▁bully	-7199
▁wrink	-7200
▁sprang	-7201
▁guide	-7202
▁Mint	-7203
▁crew	-7204
▁Amelia	-7205
omise	-7206
onna	-7207
▁breathed	-7208
ilda	-7209
ently	-7210
steps	-7211
while	-7212
▁Ke	-7213
▁Well	-7214
▁bulbs	-7215
▁coug	-7216
▁neare	-7217
▁grassy	-7218
▁spies	-7219
▁wiggly	-7220
▁testing	-7221
▁Eddie	-7222
▁sheets	-7223
▁solving	-7224
▁Start	-7225
▁footsteps	-7226
immy	-7227
ntil	-7228
▁speeding	-7229
hew	-7230
Doggy	-7231
▁focused	-7232
cept	-7233
ounced	-7234
?!"	-7235
▁Herb	-7236
▁camel	-7237
▁braver	-7238
▁mesmerized	-7239
▁hesitant	-7240
▁licking	-7241
▁Angel	-7242
▁rushing	-7243
Moo	-7244
▁joining	-7245
▁polar	-7246
▁greeted	-7247
▁worn	-7248
▁Until	-7249
▁changes	-7250
▁materials	-7251
undred	-7252
▁Despite	-7253
Which	-7254
▁Bess	-7255
▁stored	-7256
▁bicycles	-7257
▁Back	-7258
▁mast	-7259
▁anger	-7260
Leave	-7261
▁peacefully	-7262
▁Show	-7263
▁ships	-7264
Tweet	-7265
▁spice	-7266
▁nuzz	-7267
▁gonna	-7268
▁terrified	-7269
▁Cow	-7270
▁politely	-7271
▁Mean	-7272
▁spills	-7273
▁scarecrow	-7274
▁Meg	-7275
▁knives	-7276
ppies	-7277
▁evil	-7278
▁burying	-7279
ca	-7280
Billy	-7281
On	-7282
▁aren	-7283
▁healing	-7284
▁donkey	-7285
▁aeroplanes	-7286
freeze	-7287
agic	-7288
▁miles	-7289
▁seals	-7290
▁scattering	-7291
amboo	-7292
▁dump	-7293
▁Nice	-7294
▁worrying	-7295
Mimi	-7296
▁Gary	-7297
zoom	-7298
beep	-7299
--	-7300
▁puzzled	-7301
▁stacked	-7302
▁Ruth	-7303
▁loses	-7304
dding	-7305
▁baskets	-7306
▁travelled	-7307
▁Okay	-7308
▁Chess	-7309
▁blast	-7310
▁gazing	-7311
erm	-7312
ipes	-7313
▁Fairy	-7314
▁temperature	-7315
▁10	-7316
▁und	-7317
▁clue	-7318
▁tasting	-7319
▁dripping	-7320
▁believing	-7321
▁pinching	-7322
▁rats	-7323
▁soaking	-7324
Hurry	-7325
isc	-7326
▁Poor	-7327
▁Isn	-7328
▁sandy	-7329
rect	-7330
▁Mindy	-7331
rey	-7332
▁Meanwhile	-7333
▁Hug	-7334
▁Navy	-7335
▁banged	-7336
▁punishment	-7337
▁humans	-7338
▁crashing	-7339
▁Sof	-7340
▁Bra	-7341
▁gest	-7342
▁hundred	-7343
▁swimmer	-7344
▁Te	-7345
▁snowflakes	-7346
▁relaxing	-7347
form	-7348
▁Stan	-7349
▁beeped	-7350
▁resisted	-7351
▁quarreled	-7352
elie	-7353
▁ramp	-7354
▁Still	-7355
▁joins	-7356
abby	-7357
▁Dina	-7358
▁Eliz	-7359
▁backpacks	-7360
years	-7361
▁delayed	-7362
▁dressing	-7363
▁Cr	-7364
▁toddler	-7365
▁flight	-7366
▁Another	-7367
▁covering	-7368
Quick	-7369
orter	-7370
▁benches	-7371
▁encouragement	-7372
▁Maddy	-7373
▁toward	-7374
▁scraped	-7375
Open	-7376
▁focus	-7377
▁purpose	-7378
▁correct	-7379
'."	-7380
▁lipstick	-7381
ider	-7382
▁bamboo	-7383
▁months	-7384
▁potion	-7385
▁twinkled	-7386
▁permitted	-7387
▁languages	-7388
▁orders	-7389
▁freedom	-7390
▁Judge	-7391
▁risks	-7392
▁master	-7393
▁poppies	-7394
shm	-7395
▁Maisy	-7396
▁noodles	-7397
▁faded	-7398
▁Blinky	-7399
▁wounds	-7400
All	-7401
rier	-7402
▁Loop	-7403
shmallow	-7404
isions	-7405
▁creams	-7406
▁birdhouse	-7407
▁cells	-7408
▁annoyed	-7409
opes	-7410
▁adults	-7411
▁cheers	-7412
▁sniffing	-7413
▁unwra	-7414
ecca	-7415
▁puck	-7416
▁floats	-7417
▁opinions	-7418
▁Jonny	-7419
▁Sofia	-7420
▁5	-7421
▁Ria	-7422
andas	-7423
▁Eva	-7424
▁flown	-7425
▁Shelly	-7426
▁scen	-7427
▁sneezes	-7428
▁handsome	-7429
Kids	-7430
▁nodding	-7431
▁burnt	-7432
▁smelling	-7433
▁Razor	-7434
▁drifted	-7435
▁within	-7436
bage	-7437
▁height	-7438
▁scient	-7439
▁damaged	-7440
▁bothering	-7441
▁pleaded	-7442
▁slither	-7443
▁tearing	-7444
▁instruments	-7445
▁Yoga	-7446
▁ease	-7447
▁scientist	-7448
▁pound	-7449
▁Say	-7450
▁seller	-7451
▁handing	-7452
▁germ	-7453
▁Flick	-7454
▁files	-7455
▁wasting	-7456
▁dreamt	-7457
▁results	-7458
Goodnight	-7459
▁Zippy	-7460
bell	-7461
▁brushing	-7462
▁explains	-7463
▁destroying	-7464
ousy	-7465
▁hiss	-7466
▁characters	-7467
▁certain	-7468
▁sweaty	-7469
unched	-7470
▁Megan	-7471
▁Prince	-7472
▁business	-7473
In	-7474
▁Fe	-7475
▁Honey	-7476
▁onward	-7477
▁talents	-7478
▁bravest	-7479
▁engines	-7480
ition	-7481
▁sternly	-7482
prints	-7483
▁swirl	-7484
▁postman	-7485
▁mosquitoes	-7486
▁minds	-7487
cake	-7488
under	-7489
▁tuck	-7490
▁scares	-7491
▁Ricky	-7492
▁stomp	-7493
▁apologised	-7494
▁manag	-7495
▁Se	-7496
▁Gerry	-7497
▁snuck	-7498
▁bitten	-7499
Sn	-7500
uel	-7501
attered	-7502
▁tilted	-7503
▁Frankie	-7504
▁switched	-7505
▁decisions	-7506
▁reminding	-7507
▁Shadow	-7508
▁desper	-7509
▁singers	-7510
▁behavior	-7511
bbers	-7512
▁peeled	-7513
▁squeaked	-7514
Try	-7515
▁Cari	-7516
ashing	-7517
inny	-7518
▁yumm	-7519
▁purrs	-7520
▁Mousy	-7521
▁Ruff	-7522
▁smashed	-7523
▁treated	-7524
▁rustling	-7525
▁displayed	-7526
▁matey	-7527
▁neatly	-7528
▁planting	-7529
An	-7530
▁Katy	-7531
▁marshmallow	-7532
▁insp	-7533
Big	-7534
▁sy	-7535
▁cracks	-7536
▁yelped	-7537
▁bellies	-7538
▁grandparents	-7539
aver	-7540
▁Nut	-7541
▁scamp	-7542
▁shines	-7543
▁hoo	-7544
▁Fishy	-7545
▁failed	-7546
▁coloring	-7547
▁Make	-7548
▁Luc	-7549
line	-7550
▁zooms	-7551
rup	-7552
▁nasty	-7553
▁breathing	-7554
▁combed	-7555
▁pandas	-7556
▁Curious	-7557
▁despite	-7558
▁address	-7559
▁Cro	-7560
▁Tri	-7561
ighing	-7562
▁waterfall	-7563
uffin	-7564
Tw	-7565
cc	-7566
▁Nancy	-7567
▁antic	-7568
▁wider	-7569
▁robbers	-7570
▁Louise	-7571
▁Im	-7572
▁Patty	-7573
▁echoed	-7574
▁doorway	-7575
▁sweaters	-7576
▁edges	-7577
omp	-7578
▁inj	-7579
▁force	-7580
▁gap	-7581
▁disobey	-7582
wise	-7583
▁tar	-7584
▁Rita	-7585
Daisy	-7586
orking	-7587
oscope	-7588
▁taped	-7589
▁magnif	-7590
father	-7591
▁flaps	-7592
▁	-7593
e	-7594
a	-7595
t	-7596
o	-7597
h	-7598
n	-7599
d	-7600
i	-7601
s	-7602
r	-7603
l	-7604
y	-7605
m	-7606
.	-7607
w	-7608
u	-7609
p	-7610
g	-7611
c	-7612
f	-7613
b	-7614
,	-7615
k	-7616
T	-7617
"	-7618
v	-7619
S	-7620
H	-7621
x	-7622
|	-7623
I	-7624
O	-7625
L	-7626
'	-7627
!	-7628
B	-7629
M	-7630
<	-7631
>	-7632
A	-7633
W	-7634
j	-7635
?	-7636
Y	-7637
z	-7638
J	-7639
F	-7640
D	-7641
C	-7642
q	-7643
N	-7644
E	-7645
K	-7646
P	-7647
G	-7648
R	-7649
-	-7650
”	-7651
“	-7652
:	-7653
’	-7654
Z	-7655
V	-7656
U	-7657
3	-7658
;	-7659
Q	-7660
–	-7661
1	-7662
X	-7663
—	-7664
0	-7665
2	-7666
‘	-7667
5	-7668
4	-7669
/	-7670
9	-7671
`	-7672
8	-7673
6	-7674
7	-7675
é	-7676
)	-7677
(	-7678
$	-7679
_	-7680
*	-7681
\	-7682
ñ	-7683
&	-7684
́	-7685
+	-7686
ó	-7687
=	-7688
[	-7689
]	-7690
#	-7691
â	-7692
€	-7693
%	-7694
¿	-7695
É	-7696
~	-7697
í	-7698
米	-7699
­	-7700
à	-7701
á	-7702
è	-7703
£	-7704
«	-7705
»	-7706
ï	-7707
ā	-7708
œ	-7709
§	-7710
―	-7711
„	-7712
。	-7713
他	-7714
玉	-7715
¡	-7716
ᴇ	-7717
巴	-7718
很	-7719
恩	-7720
艾	-7721
莉	-7722
@	-7723
ê	-7724
ɪ	-7725
ʜ	-7726
ᴅ	-7727
ᴏ	-7728
ᴢ	-7729
‐	-7730
‪	-7731
一	-7732
了	-7733
剛	-7734
她	-7735
應	-7736
田	-7737
答	-7738
自	-7739
